const unsigned char model[] = {
  0x20, 0x00, 0x00, 0x00, 0x54, 0x46, 0x4c, 0x33, 0x00, 0x00, 0x00, 0x00,
  0x00, 0x00, 0x12, 0x00, 0x1c, 0x00, 0x04, 0x00, 0x08, 0x00, 0x0c, 0x00,
  0x10, 0x00, 0x14, 0x00, 0x00, 0x00, 0x18, 0x00, 0x12, 0x00, 0x00, 0x00,
  0x03, 0x00, 0x00, 0x00, 0x84, 0x24, 0x00, 0x00, 0x90, 0x1c, 0x00, 0x00,
  0x78, 0x1c, 0x00, 0x00, 0x3c, 0x00, 0x00, 0x00, 0x04, 0x00, 0x00, 0x00,
  0x01, 0x00, 0x00, 0x00, 0x0c, 0x00, 0x00, 0x00, 0x08, 0x00, 0x0c, 0x00,
  0x04, 0x00, 0x08, 0x00, 0x08, 0x00, 0x00, 0x00, 0x08, 0x00, 0x00, 0x00,
  0x0c, 0x00, 0x00, 0x00, 0x13, 0x00, 0x00, 0x00, 0x6d, 0x69, 0x6e, 0x5f,
  0x72, 0x75, 0x6e, 0x74, 0x69, 0x6d, 0x65, 0x5f, 0x76, 0x65, 0x72, 0x73,
  0x69, 0x6f, 0x6e, 0x00, 0x0d, 0x00, 0x00, 0x00, 0x30, 0x1c, 0x00, 0x00,
  0x18, 0x1c, 0x00, 0x00, 0xe8, 0x1b, 0x00, 0x00, 0x9c, 0x1b, 0x00, 0x00,
  0xc4, 0x1a, 0x00, 0x00, 0xbc, 0x1a, 0x00, 0x00, 0xbc, 0x17, 0x00, 0x00,
  0xb4, 0x17, 0x00, 0x00, 0xac, 0x17, 0x00, 0x00, 0x2c, 0x00, 0x00, 0x00,
  0x24, 0x00, 0x00, 0x00, 0x1c, 0x00, 0x00, 0x00, 0x04, 0x00, 0x00, 0x00,
  0x6a, 0xe3, 0xff, 0xff, 0x04, 0x00, 0x00, 0x00, 0x05, 0x00, 0x00, 0x00,
  0x31, 0x2e, 0x35, 0x2e, 0x30, 0x00, 0x00, 0x00, 0x4c, 0xe3, 0xff, 0xff,
  0x50, 0xe3, 0xff, 0xff, 0x86, 0xe3, 0xff, 0xff, 0x04, 0x00, 0x00, 0x00,
  0x70, 0x17, 0x00, 0x00, 0xfd, 0x06, 0xfe, 0x3e, 0xde, 0x00, 0xf9, 0x51,
  0xfe, 0xff, 0x0b, 0x27, 0xe3, 0x07, 0xed, 0xc2, 0x03, 0x05, 0xf3, 0xff,
  0x19, 0xf9, 0x06, 0x05, 0x2a, 0xd9, 0xc3, 0x24, 0x44, 0x16, 0xed, 0xd9,
  0xe4, 0xd6, 0xef, 0xfa, 0xef, 0x0b, 0x11, 0xdb, 0x0b, 0x0a, 0x24, 0xef,
  0x2d, 0xd8, 0x1c, 0x08, 0xcc, 0xcd, 0x1e, 0x1d, 0xf2, 0x42, 0xf1, 0xf5,
  0xe2, 0xeb, 0xdb, 0x2e, 0xf5, 0x22, 0xf8, 0xff, 0x18, 0xe6, 0x00, 0x13,
  0xda, 0xe0, 0xe8, 0x55, 0x1f, 0xef, 0x4b, 0x16, 0xc2, 0x1e, 0xfa, 0x57,
  0x25, 0xea, 0x23, 0x39, 0x19, 0x2d, 0x0f, 0xe8, 0xcb, 0x0a, 0xf4, 0x1e,
  0x3b, 0xed, 0x07, 0xe1, 0x1c, 0xf3, 0x17, 0xf8, 0x08, 0x4a, 0x08, 0xe0,
  0xe5, 0x13, 0xaf, 0x1e, 0xdb, 0x4c, 0xe2, 0xf8, 0x2e, 0x0e, 0xdd, 0xb2,
  0x25, 0x35, 0xc1, 0xc0, 0xd7, 0xdc, 0xdc, 0xee, 0x34, 0x08, 0x0f, 0xba,
  0x4a, 0x51, 0xdd, 0x1a, 0x0d, 0xfb, 0x26, 0xe1, 0x12, 0x12, 0xee, 0x0a,
  0x20, 0x30, 0x59, 0xdb, 0xed, 0xcc, 0xc9, 0xd7, 0xc5, 0x2f, 0xd9, 0x48,
  0x27, 0x09, 0xdc, 0x10, 0xf2, 0xea, 0xf8, 0xbe, 0xa8, 0x31, 0xc3, 0x31,
  0x27, 0xe5, 0x00, 0x19, 0x10, 0x26, 0x0d, 0xec, 0xbc, 0x11, 0xf9, 0x27,
  0xd7, 0xf4, 0xf9, 0x1a, 0x35, 0x23, 0x4a, 0xd3, 0xf1, 0xe9, 0xf6, 0xff,
  0xd3, 0x27, 0xc3, 0x3e, 0xff, 0x2a, 0xde, 0xe4, 0x27, 0xf0, 0xd9, 0xe0,
  0x0f, 0x06, 0xd1, 0x26, 0x19, 0xc0, 0x53, 0xe9, 0xd7, 0xe4, 0xe8, 0xca,
  0x0b, 0xf8, 0x04, 0x20, 0xde, 0xfe, 0x0b, 0x1e, 0xff, 0x1c, 0x18, 0x2b,
  0x1d, 0xfd, 0xd3, 0xf8, 0x25, 0x13, 0x16, 0x23, 0xc8, 0xe3, 0x07, 0xd7,
  0x09, 0x1b, 0xb4, 0x1b, 0x17, 0x10, 0x5c, 0x19, 0x1c, 0xcc, 0xf5, 0xd3,
  0xf2, 0x18, 0x15, 0xcb, 0x02, 0x16, 0xf7, 0x26, 0x2c, 0xd0, 0x1e, 0xdf,
  0x24, 0x44, 0x00, 0xd4, 0xd5, 0x37, 0x4a, 0x05, 0x00, 0x2b, 0x2d, 0xc1,
  0x2f, 0x04, 0x33, 0x2e, 0xa9, 0x11, 0x1c, 0x39, 0x24, 0xec, 0xb4, 0x05,
  0x36, 0x14, 0x18, 0x12, 0xd0, 0xe6, 0x0c, 0xcc, 0xe6, 0xbf, 0x22, 0x16,
  0x31, 0xeb, 0xdd, 0x24, 0x10, 0xe1, 0x4f, 0xff, 0xee, 0x36, 0xe7, 0x5a,
  0xf7, 0xdf, 0x3d, 0x09, 0xd0, 0x1c, 0xf0, 0xd8, 0xec, 0x48, 0xc0, 0x1a,
  0x31, 0xeb, 0xf9, 0xaf, 0x01, 0x19, 0x32, 0x17, 0xcf, 0xff, 0xc7, 0x3a,
  0xfe, 0x30, 0x16, 0x51, 0xd8, 0x3d, 0xfc, 0x2d, 0x1c, 0x3b, 0x0b, 0x35,
  0xd9, 0x12, 0xd4, 0xd9, 0x11, 0xe8, 0x0a, 0x14, 0xdd, 0x08, 0x0a, 0x0a,
  0xd0, 0xff, 0xf7, 0x23, 0xd6, 0xfc, 0xd4, 0x12, 0x48, 0xe0, 0xec, 0x2d,
  0xd4, 0x21, 0x24, 0x01, 0x4e, 0x37, 0xc8, 0xd7, 0xfe, 0x0b, 0x35, 0xc9,
  0xd5, 0xda, 0x1f, 0x07, 0xf8, 0x25, 0xf1, 0xc7, 0x49, 0xf3, 0x1e, 0xed,
  0x12, 0xf1, 0x05, 0x16, 0x0e, 0x16, 0xf0, 0xdb, 0x0b, 0x1f, 0x4a, 0x20,
  0xc5, 0xf7, 0xd1, 0xd6, 0x0e, 0xec, 0xbd, 0x1f, 0x18, 0xe9, 0x2b, 0xea,
  0x02, 0x2b, 0xfe, 0x41, 0xef, 0xf1, 0xfa, 0xb7, 0x31, 0xca, 0x2b, 0xbd,
  0x34, 0x39, 0x25, 0xc5, 0x1f, 0x37, 0x22, 0xe1, 0x29, 0x26, 0xee, 0xd3,
  0xc2, 0xd8, 0x12, 0xeb, 0xfa, 0xd9, 0xd1, 0x0c, 0xe8, 0xf1, 0xb3, 0x0a,
  0x07, 0xf6, 0xda, 0x03, 0x1c, 0xc5, 0x0c, 0xd9, 0x36, 0x45, 0xf9, 0x47,
  0x16, 0x12, 0x17, 0x03, 0x1a, 0xf5, 0x21, 0xd6, 0x25, 0x2f, 0x0c, 0xd5,
  0xe7, 0x3d, 0xd6, 0xf9, 0xdb, 0xe3, 0xed, 0x02, 0xea, 0xe3, 0x28, 0xbe,
  0x0c, 0x27, 0xd3, 0x36, 0x21, 0x0e, 0x08, 0x42, 0x35, 0xce, 0x21, 0x0b,
  0xee, 0xd2, 0x11, 0xcb, 0xe7, 0xe2, 0xee, 0x04, 0xd8, 0x0e, 0x2b, 0x39,
  0x1a, 0x2a, 0x17, 0xec, 0x10, 0xfd, 0x06, 0x1d, 0x38, 0x16, 0x10, 0x11,
  0x35, 0x4f, 0xdb, 0xff, 0xe8, 0x1f, 0xa8, 0x05, 0x1c, 0xbd, 0xde, 0x0e,
  0xf9, 0xc9, 0xe7, 0x0c, 0xf9, 0x0c, 0x2f, 0xec, 0x3c, 0xe9, 0x45, 0x15,
  0xdb, 0xcf, 0x13, 0xde, 0x37, 0x10, 0x0e, 0x06, 0x3a, 0xe5, 0xd7, 0x2f,
  0x44, 0xb2, 0xe5, 0x19, 0x15, 0x16, 0xe4, 0xf5, 0x14, 0x09, 0xe5, 0xdb,
  0x2e, 0xb4, 0xf1, 0x0c, 0x32, 0xd2, 0x08, 0xf4, 0x4b, 0x14, 0xd3, 0x29,
  0xed, 0x3c, 0x3a, 0xcc, 0x10, 0xf1, 0x29, 0x25, 0x11, 0xee, 0xf0, 0xba,
  0xb7, 0xf6, 0x1e, 0x32, 0x07, 0xf4, 0x81, 0x0d, 0xfd, 0xd3, 0xef, 0x14,
  0xb3, 0xf8, 0xf1, 0x18, 0xe6, 0xfd, 0xc3, 0x4a, 0xf7, 0x33, 0xcc, 0xfc,
  0x59, 0x23, 0xdb, 0x08, 0x05, 0xb8, 0x1f, 0xcc, 0x22, 0x10, 0x06, 0x1c,
  0x63, 0xc6, 0x0b, 0xd7, 0xfd, 0x4e, 0xfe, 0x07, 0xf1, 0x0b, 0xe6, 0x05,
  0xc6, 0x0e, 0x18, 0x07, 0xea, 0xe8, 0x39, 0xfb, 0xdf, 0xd9, 0xff, 0x11,
  0x58, 0xf8, 0x15, 0x54, 0xec, 0xef, 0xf2, 0x11, 0x16, 0x1c, 0xca, 0x11,
  0x28, 0xfe, 0xc7, 0x17, 0x08, 0x2c, 0xf3, 0xf1, 0x32, 0xf0, 0xfd, 0x2d,
  0xd8, 0xf3, 0x03, 0x18, 0xce, 0x54, 0xf4, 0xad, 0xf8, 0x09, 0x15, 0x0c,
  0x11, 0x12, 0x3a, 0x19, 0xdf, 0x15, 0xe7, 0x0f, 0xf2, 0x02, 0x2d, 0x3d,
  0xe7, 0xc8, 0xef, 0x23, 0x47, 0xf5, 0x24, 0x00, 0xf0, 0xe8, 0xd5, 0x16,
  0xf4, 0xd8, 0x3d, 0x3c, 0xed, 0xeb, 0xb5, 0xe2, 0x0a, 0xd7, 0xef, 0xff,
  0xb0, 0xba, 0xdf, 0xd0, 0xe6, 0x5c, 0x0d, 0xb7, 0xc6, 0x39, 0xbc, 0xc3,
  0x54, 0x2e, 0xbe, 0x24, 0xde, 0x17, 0x2c, 0x4d, 0xda, 0x2b, 0x01, 0x04,
  0x1f, 0x43, 0xf4, 0x1a, 0xbc, 0xf0, 0x4d, 0x39, 0x16, 0x2d, 0x26, 0x13,
  0xfd, 0x44, 0x04, 0x4b, 0x0c, 0x22, 0x02, 0x45, 0x00, 0xf0, 0xf5, 0xd5,
  0xfb, 0x2d, 0xbc, 0x10, 0xfd, 0xe8, 0x0d, 0xce, 0xbd, 0xe6, 0xe7, 0xba,
  0x40, 0x40, 0xe4, 0x2e, 0xdd, 0x36, 0x03, 0x36, 0x29, 0xe3, 0x2b, 0xe2,
  0xe9, 0xbe, 0x32, 0xc7, 0x0b, 0x03, 0xbb, 0x0a, 0x1e, 0x0e, 0xce, 0x06,
  0xec, 0x04, 0x26, 0x24, 0x1b, 0xe4, 0xff, 0xd4, 0x2c, 0xb5, 0x43, 0x1e,
  0x3a, 0x02, 0x03, 0xea, 0xe9, 0xda, 0xf4, 0x46, 0x27, 0xc4, 0xf7, 0xe2,
  0xd3, 0x11, 0x1c, 0x27, 0xfd, 0x00, 0x76, 0xe7, 0xc6, 0x1a, 0xf8, 0x21,
  0x43, 0x13, 0x16, 0x40, 0x1f, 0xfa, 0xee, 0x44, 0xe5, 0xd8, 0xde, 0x17,
  0x22, 0x38, 0xdb, 0xc6, 0xe5, 0x00, 0xfd, 0xf1, 0x48, 0x1d, 0xd1, 0xd0,
  0x32, 0x05, 0xcc, 0xee, 0x04, 0xb4, 0xe0, 0xba, 0xf4, 0xcc, 0xf5, 0xa8,
  0x18, 0x2d, 0xff, 0x20, 0x04, 0xc2, 0x1f, 0xe9, 0xd3, 0xef, 0xbb, 0xda,
  0xe8, 0x2d, 0x14, 0xd7, 0x06, 0x32, 0xe2, 0xe9, 0xf7, 0x22, 0xf2, 0x11,
  0xea, 0xce, 0xcd, 0xef, 0xdf, 0x12, 0xf4, 0x02, 0xf6, 0x06, 0x12, 0x0e,
  0x0b, 0x1c, 0x0a, 0x01, 0xf7, 0xfd, 0x13, 0x2e, 0xc3, 0x00, 0xe6, 0xcc,
  0x1e, 0xdb, 0x03, 0x48, 0x51, 0xe6, 0x34, 0xfd, 0x05, 0x17, 0xe6, 0x30,
  0x32, 0x0a, 0xe8, 0x00, 0xf9, 0xdd, 0xff, 0xe8, 0xd0, 0x1c, 0x3e, 0xd7,
  0x0a, 0xd6, 0x39, 0xfc, 0xc6, 0x10, 0x1e, 0x51, 0xf2, 0xfe, 0x1b, 0x55,
  0x28, 0x1d, 0x0c, 0xef, 0x0a, 0x04, 0xda, 0xff, 0xf8, 0xfb, 0xe5, 0x2f,
  0x23, 0x1a, 0x0b, 0xca, 0x17, 0xfd, 0xdf, 0xf6, 0xe5, 0x07, 0xd4, 0x28,
  0xdc, 0x0a, 0xea, 0xf7, 0xea, 0xde, 0xee, 0xe9, 0xd2, 0xe6, 0x06, 0x33,
  0x46, 0x13, 0xfa, 0xdd, 0x10, 0xbb, 0x3b, 0x0a, 0xe7, 0xd9, 0xd3, 0xfb,
  0xd6, 0xf1, 0x17, 0xe4, 0xfb, 0x3b, 0x1a, 0x1a, 0x26, 0xe2, 0xcb, 0x15,
  0xcd, 0xae, 0xd1, 0xec, 0x09, 0xe7, 0xf4, 0x2d, 0x4e, 0x02, 0x2c, 0xdd,
  0xef, 0x42, 0x22, 0x33, 0xf1, 0xc3, 0x2a, 0x31, 0x03, 0xda, 0xc2, 0x03,
  0x00, 0x0e, 0x3e, 0xbb, 0xeb, 0x01, 0x2b, 0x11, 0x2b, 0x2f, 0xfa, 0x07,
  0x22, 0xe0, 0xb9, 0xf7, 0xfc, 0xf4, 0xed, 0xf0, 0xf6, 0xcb, 0xe9, 0xf9,
  0x30, 0x1e, 0xf5, 0x36, 0xfe, 0xe4, 0x34, 0x2a, 0xd9, 0xd5, 0xd3, 0xd3,
  0x1c, 0xcb, 0x21, 0x35, 0xdf, 0xdc, 0xe5, 0xe6, 0x54, 0xed, 0xf9, 0x3f,
  0x27, 0xeb, 0x00, 0x0f, 0x17, 0xd6, 0x20, 0xf6, 0xb8, 0xff, 0x34, 0x06,
  0xcb, 0x25, 0xf7, 0x12, 0xd0, 0xfd, 0xe4, 0x19, 0x24, 0x43, 0x20, 0x29,
  0xf8, 0xe1, 0xcc, 0xc6, 0x04, 0x1a, 0xf8, 0xf7, 0xed, 0x14, 0x19, 0xd0,
  0x28, 0x19, 0x14, 0xde, 0x4b, 0xee, 0xe3, 0xeb, 0x39, 0x46, 0xd5, 0x28,
  0x40, 0x41, 0x04, 0xe6, 0xc8, 0x23, 0x22, 0xde, 0xba, 0x0b, 0x36, 0xc9,
  0xdb, 0x0a, 0xca, 0xc3, 0xd9, 0xaf, 0xfb, 0x3a, 0xbd, 0xd6, 0xb2, 0x2c,
  0x15, 0x39, 0x11, 0xcc, 0x3e, 0xcf, 0x16, 0x1d, 0xae, 0x15, 0x0b, 0xdc,
  0x28, 0x41, 0xc5, 0xe2, 0x27, 0x4d, 0xef, 0xfc, 0xb8, 0xf3, 0x14, 0xf0,
  0x08, 0xfe, 0xf1, 0xee, 0x2d, 0x17, 0x2a, 0x26, 0x15, 0x2a, 0xdb, 0x1b,
  0xdb, 0xfa, 0xfd, 0x43, 0xcd, 0x38, 0x03, 0xda, 0x07, 0xf8, 0x04, 0xe3,
  0xdf, 0xeb, 0x1d, 0xf0, 0x0f, 0xc3, 0x03, 0x11, 0xff, 0xec, 0x0f, 0x11,
  0x05, 0x04, 0x23, 0x09, 0x13, 0x29, 0x47, 0xe1, 0x3b, 0xd7, 0x29, 0x14,
  0xdc, 0x18, 0x07, 0x00, 0x1f, 0xeb, 0x0d, 0x0c, 0xc9, 0x1f, 0xf7, 0x27,
  0x1f, 0xea, 0x22, 0x18, 0xdb, 0x28, 0xd4, 0x04, 0xec, 0xef, 0xc2, 0xcc,
  0xc3, 0x02, 0xf9, 0xf2, 0x07, 0xf0, 0xe1, 0xeb, 0x3d, 0x13, 0x56, 0x30,
  0x0c, 0x34, 0xde, 0x46, 0xc7, 0xfb, 0x1d, 0xe1, 0xe1, 0x2e, 0x0a, 0x1d,
  0xd7, 0x06, 0xf0, 0x0e, 0xe9, 0x3e, 0xe1, 0x16, 0xed, 0xf2, 0x24, 0xe8,
  0xb5, 0xb9, 0xe7, 0x26, 0xe3, 0x02, 0x04, 0x22, 0xf2, 0xd4, 0x06, 0xfa,
  0xf2, 0x15, 0xdf, 0xfc, 0xc8, 0xe1, 0x20, 0x2a, 0x15, 0xe9, 0xe6, 0x1d,
  0x35, 0x1c, 0x13, 0xc7, 0xfc, 0x20, 0x1c, 0xf7, 0xc6, 0x34, 0x4a, 0xdb,
  0x49, 0xcc, 0x20, 0xda, 0x25, 0xfe, 0x08, 0xfd, 0x36, 0xca, 0xea, 0xe5,
  0xef, 0x30, 0x03, 0x30, 0xd7, 0x09, 0x47, 0x17, 0x11, 0x56, 0x2a, 0xe9,
  0x37, 0xfa, 0x1d, 0x35, 0xff, 0xdd, 0xf5, 0x05, 0xdf, 0xff, 0x20, 0x2a,
  0x1d, 0x2e, 0xe8, 0x08, 0x0c, 0x0e, 0x54, 0x37, 0x51, 0x04, 0xfb, 0x33,
  0x31, 0x0e, 0x00, 0xf8, 0xcc, 0x04, 0x11, 0xf5, 0x06, 0x3f, 0x10, 0x14,
  0x24, 0x46, 0x01, 0x36, 0x1a, 0xd3, 0xf9, 0x3a, 0xba, 0x1e, 0x27, 0xd7,
  0xdf, 0x06, 0x33, 0xec, 0x05, 0xc8, 0xf8, 0xec, 0xbe, 0xfe, 0xc0, 0x24,
  0x37, 0xff, 0xe9, 0xe7, 0xe2, 0xe7, 0xf8, 0xdf, 0x3d, 0xdc, 0x08, 0x37,
  0x11, 0x0d, 0xf8, 0x0c, 0xe7, 0xd4, 0xa5, 0x22, 0x0e, 0xec, 0xcd, 0x14,
  0xe5, 0x37, 0xf1, 0x15, 0xd9, 0xf9, 0x2b, 0x1f, 0x20, 0xd9, 0xe3, 0x3f,
  0x51, 0xce, 0x91, 0xfe, 0xc3, 0x25, 0x12, 0x06, 0xbf, 0xca, 0xf4, 0xf2,
  0x0f, 0x1a, 0xbd, 0x33, 0x07, 0x10, 0x37, 0xec, 0x55, 0x13, 0xf2, 0xfd,
  0xfb, 0xce, 0x1f, 0xb1, 0xf5, 0x2d, 0x1a, 0xec, 0xf0, 0x2c, 0x01, 0x20,
  0xf1, 0x06, 0xf8, 0x1f, 0xe4, 0xfb, 0x38, 0xf0, 0x16, 0xed, 0xed, 0x0b,
  0xfc, 0x0b, 0xc8, 0x1d, 0x04, 0xdf, 0x4e, 0x00, 0x06, 0x1b, 0x23, 0x12,
  0x2a, 0x29, 0x60, 0xf7, 0x3f, 0xd1, 0xd1, 0x04, 0xcd, 0x16, 0x1d, 0x62,
  0xfd, 0xde, 0x3b, 0xcc, 0xef, 0x27, 0x29, 0x17, 0x08, 0xfe, 0x44, 0xf7,
  0xc4, 0xbd, 0x2e, 0x42, 0xfe, 0xab, 0xe4, 0xde, 0xd7, 0xed, 0xd3, 0x2c,
  0x23, 0x37, 0x2a, 0x0f, 0xc7, 0x0d, 0x4b, 0x2f, 0xf4, 0x0c, 0xf7, 0xfc,
  0x47, 0xd3, 0x0d, 0xe4, 0xf6, 0x14, 0x0c, 0x23, 0x1d, 0x2d, 0x25, 0x16,
  0x28, 0xdc, 0x26, 0x02, 0xd9, 0xad, 0x2b, 0xbe, 0x17, 0x0f, 0xf7, 0x15,
  0x14, 0x01, 0x22, 0xfb, 0x0c, 0x09, 0xda, 0x41, 0xfa, 0xbc, 0x1a, 0x13,
  0x36, 0xce, 0x08, 0xe9, 0xb0, 0xed, 0x43, 0xe4, 0xee, 0xb4, 0xf0, 0x04,
  0x0a, 0x2a, 0x20, 0xd9, 0xc2, 0xc1, 0x38, 0x02, 0xfb, 0xf6, 0xe0, 0x0a,
  0x1b, 0x42, 0x34, 0xd7, 0xe5, 0x26, 0x72, 0x50, 0xe3, 0xf5, 0xde, 0x02,
  0x57, 0xed, 0x18, 0x10, 0x3e, 0x03, 0x66, 0xc4, 0x10, 0x25, 0xb4, 0x03,
  0x29, 0xec, 0xb5, 0x2e, 0xda, 0x07, 0x02, 0x14, 0xf6, 0x2c, 0xf7, 0xee,
  0x03, 0xc1, 0x3d, 0x04, 0xbf, 0x04, 0x2a, 0x23, 0xba, 0x02, 0x4c, 0x2e,
  0x36, 0xd7, 0x05, 0x13, 0xf4, 0x00, 0x43, 0x02, 0x17, 0x10, 0x27, 0x38,
  0xea, 0x20, 0x12, 0xdc, 0xe7, 0xca, 0x31, 0xd3, 0x61, 0xdd, 0x05, 0xfa,
  0x03, 0x02, 0x0d, 0x2c, 0x37, 0xd0, 0x02, 0x26, 0xfa, 0x16, 0xc4, 0x0c,
  0xfb, 0xf0, 0x10, 0xf4, 0xe7, 0x09, 0xd5, 0x1b, 0x2e, 0x01, 0xea, 0xec,
  0xd1, 0x11, 0x2a, 0x25, 0xcc, 0x26, 0x43, 0x11, 0xfc, 0xdd, 0xd8, 0x14,
  0x13, 0x23, 0x44, 0x47, 0x17, 0xce, 0x36, 0x04, 0x22, 0x0a, 0x30, 0x06,
  0x05, 0xb3, 0x10, 0xee, 0xd6, 0xec, 0xc1, 0x1b, 0xff, 0xed, 0xe0, 0xc8,
  0x33, 0xea, 0x34, 0xe8, 0x0c, 0xc5, 0xd3, 0x42, 0x34, 0xff, 0xda, 0xcb,
  0xd3, 0xec, 0x33, 0xd1, 0x27, 0xd6, 0x03, 0xe0, 0xde, 0x10, 0xe3, 0xda,
  0xfe, 0xe5, 0xe0, 0xc2, 0xe6, 0x07, 0x18, 0x30, 0xce, 0x1c, 0xcf, 0x28,
  0x27, 0xe8, 0xb2, 0xfe, 0x07, 0x24, 0x2e, 0xe9, 0xcc, 0xcf, 0x05, 0xbc,
  0x46, 0x12, 0xe0, 0x14, 0x01, 0xbe, 0x33, 0x05, 0xeb, 0xe6, 0xfb, 0x4c,
  0x1a, 0x52, 0x21, 0x3e, 0x36, 0x08, 0x08, 0x23, 0x02, 0x12, 0xe4, 0xde,
  0x2c, 0x00, 0xd1, 0xe7, 0x27, 0xcb, 0xda, 0xfb, 0xc8, 0x05, 0xf5, 0x03,
  0xf4, 0xe5, 0xfb, 0x1b, 0xd1, 0x44, 0x0f, 0x20, 0x35, 0x0a, 0xeb, 0x11,
  0xc1, 0xe1, 0xd5, 0x08, 0xd1, 0x19, 0xe5, 0x38, 0x3c, 0xc3, 0xcc, 0xdd,
  0x08, 0xe7, 0xfb, 0x26, 0xe6, 0x26, 0x22, 0xd6, 0x19, 0xd6, 0x00, 0xf7,
  0x11, 0x19, 0xfa, 0xdd, 0x19, 0xa5, 0x1b, 0x4c, 0xe5, 0xab, 0x1f, 0xc5,
  0xea, 0x03, 0xd0, 0x1d, 0x40, 0xfa, 0x34, 0x13, 0x0a, 0xd2, 0xb6, 0x35,
  0x25, 0xee, 0x2a, 0xee, 0xdf, 0x23, 0xf8, 0x25, 0x41, 0x12, 0x2f, 0x1e,
  0x21, 0x1d, 0xf9, 0xe8, 0xd6, 0xe0, 0xde, 0x3c, 0x0d, 0x0c, 0xe5, 0xf4,
  0xcb, 0xf8, 0xd9, 0x05, 0xdb, 0x18, 0xde, 0xc4, 0xe9, 0x12, 0xb8, 0xe5,
  0x41, 0xc5, 0xaf, 0x17, 0xc7, 0x3e, 0x6f, 0xe9, 0xe9, 0x3f, 0xc3, 0xf6,
  0x13, 0xef, 0xf5, 0x13, 0x19, 0xdd, 0xeb, 0xcb, 0xc4, 0xe3, 0x20, 0x03,
  0xd7, 0xf8, 0x4a, 0x21, 0xdd, 0x32, 0xf6, 0x33, 0xe9, 0xfa, 0xd3, 0xeb,
  0x3e, 0xcd, 0xec, 0x2c, 0xeb, 0xf7, 0x4c, 0xf5, 0xe0, 0xff, 0x08, 0x4a,
  0xed, 0x4d, 0xbf, 0x20, 0xc6, 0xdf, 0xd2, 0xe3, 0x0e, 0xd9, 0xf9, 0xfa,
  0xd9, 0x2c, 0x66, 0x0e, 0x1e, 0x37, 0xe5, 0x26, 0x22, 0x1b, 0xde, 0x41,
  0xf6, 0xfe, 0x16, 0xff, 0x36, 0x29, 0x04, 0xe6, 0x12, 0xf3, 0x01, 0xe0,
  0xc7, 0x02, 0x4a, 0x27, 0x20, 0x0b, 0x09, 0xe9, 0xff, 0xe6, 0xe9, 0x13,
  0xba, 0xc8, 0xe9, 0xf9, 0x39, 0xfa, 0x22, 0x0a, 0xcf, 0xd6, 0xf4, 0x27,
  0xf3, 0xe0, 0xfc, 0x1c, 0x34, 0x2f, 0x36, 0x4f, 0xf7, 0x22, 0x09, 0x19,
  0x11, 0xe9, 0x20, 0xc3, 0xe4, 0x35, 0x12, 0xeb, 0xb9, 0x19, 0x06, 0x3d,
  0xdd, 0x17, 0xe2, 0x02, 0x22, 0x35, 0xef, 0x2e, 0xb3, 0xf0, 0xf0, 0x55,
  0x17, 0x07, 0x0c, 0x04, 0xbe, 0x15, 0xfe, 0xe2, 0xbe, 0xff, 0xba, 0x11,
  0xcd, 0x4e, 0x16, 0x09, 0xc7, 0x0a, 0x19, 0x1f, 0x37, 0xf1, 0xe4, 0x3b,
  0xdf, 0xca, 0xf7, 0xe2, 0xb5, 0xf5, 0xe5, 0x13, 0xd4, 0x42, 0x0e, 0x39,
  0xce, 0x1a, 0xec, 0xd7, 0xf0, 0x0e, 0x08, 0xeb, 0xdd, 0xc1, 0x49, 0x00,
  0xdc, 0x05, 0xdb, 0xaf, 0xe6, 0x01, 0xe7, 0x27, 0xee, 0x0f, 0x16, 0x1e,
  0xc0, 0x0c, 0xc3, 0x40, 0x11, 0xaf, 0xeb, 0xec, 0x02, 0xed, 0x10, 0xd4,
  0xdc, 0xaf, 0x14, 0x06, 0xfc, 0x68, 0x3d, 0xe3, 0x08, 0xff, 0xd7, 0x2e,
  0xf5, 0x2b, 0x1f, 0x24, 0xfa, 0x0e, 0x23, 0xfe, 0xf2, 0xe6, 0xd6, 0x0e,
  0x33, 0xec, 0x1b, 0xc8, 0x18, 0xde, 0x10, 0x1a, 0x16, 0xbf, 0x26, 0x04,
  0xe3, 0xbc, 0x09, 0xea, 0xea, 0xf7, 0xfa, 0xff, 0xce, 0xdb, 0xf3, 0xc9,
  0xdd, 0x43, 0x07, 0xf5, 0xfc, 0xfa, 0xe1, 0xdd, 0x19, 0x19, 0x33, 0xf2,
  0xb0, 0x03, 0xac, 0xfb, 0x1b, 0xfb, 0xca, 0xc9, 0xc2, 0xfc, 0xcc, 0xed,
  0x31, 0x30, 0xfd, 0x1d, 0x27, 0x1d, 0x0a, 0x12, 0x36, 0xc7, 0xd5, 0x0d,
  0xf5, 0x06, 0xe0, 0xf8, 0x3e, 0x0c, 0x5f, 0x3c, 0xd5, 0xbc, 0xdc, 0xee,
  0xf0, 0x0a, 0xf6, 0x05, 0x1b, 0x30, 0x40, 0x00, 0x3c, 0xe3, 0x45, 0xb6,
  0x28, 0xdd, 0x08, 0xc1, 0xfb, 0xeb, 0x5c, 0x2a, 0xef, 0x02, 0x02, 0xff,
  0x2f, 0x21, 0xcf, 0xd4, 0xe9, 0xf0, 0x31, 0xe4, 0xf5, 0x26, 0xfc, 0xb9,
  0xfc, 0xfc, 0x07, 0xfe, 0x13, 0x28, 0xff, 0x37, 0x11, 0x20, 0x28, 0xe9,
  0x12, 0x1b, 0xf3, 0xda, 0x13, 0x0b, 0x27, 0xc6, 0xc3, 0xc4, 0xe2, 0x12,
  0x11, 0xd0, 0x29, 0x46, 0x14, 0xfb, 0x0f, 0x1a, 0x11, 0xac, 0xe7, 0xd5,
  0x4d, 0x22, 0x1d, 0x34, 0x24, 0xe5, 0x05, 0x35, 0x11, 0xb5, 0x29, 0x18,
  0x42, 0xc0, 0x2a, 0xee, 0x2b, 0x10, 0x4d, 0x06, 0xfb, 0xec, 0xc6, 0xba,
  0x4a, 0xf1, 0x02, 0x1c, 0x4b, 0xe1, 0x37, 0xd3, 0xf2, 0x3f, 0xee, 0x3b,
  0x34, 0x00, 0xb6, 0x08, 0xf7, 0x07, 0x3e, 0x0f, 0xea, 0x12, 0xcf, 0xd7,
  0xf2, 0x3c, 0x1a, 0xf7, 0x0c, 0x0f, 0xcf, 0xe4, 0x41, 0x09, 0xfe, 0x05,
  0x04, 0x08, 0xd9, 0xd9, 0x0d, 0x16, 0x23, 0x29, 0x4f, 0xe5, 0x12, 0xf9,
  0xe8, 0x08, 0xfd, 0xd5, 0x4b, 0x31, 0x0e, 0xfd, 0x19, 0xd2, 0xfa, 0xef,
  0xf4, 0xea, 0x2c, 0x06, 0xe8, 0x03, 0x16, 0x4d, 0xf9, 0xd7, 0x46, 0xe6,
  0xc3, 0x3b, 0xe4, 0xfb, 0xf5, 0xe8, 0x3c, 0xe5, 0xdf, 0xe2, 0xfa, 0x05,
  0x19, 0x19, 0x3c, 0xde, 0x1b, 0xfc, 0x2d, 0x27, 0xd7, 0x45, 0x23, 0xee,
  0xd8, 0xf8, 0xd3, 0x4a, 0xcd, 0xe6, 0x26, 0xd8, 0xeb, 0x11, 0x37, 0xff,
  0x30, 0xc6, 0x0d, 0xb0, 0xf2, 0xe2, 0xcb, 0x3f, 0x2d, 0xea, 0xf0, 0x2c,
  0xd0, 0x0f, 0x14, 0x29, 0x4f, 0xe4, 0x0f, 0x17, 0xcf, 0x0e, 0x0b, 0xeb,
  0xe4, 0x0a, 0xf8, 0x1f, 0xf8, 0xd9, 0xf6, 0xea, 0xeb, 0xdd, 0xf2, 0x25,
  0xcb, 0xbc, 0x2e, 0xf1, 0xec, 0xdf, 0x17, 0x09, 0xf5, 0xf5, 0x3e, 0xd1,
  0xd9, 0xbc, 0xee, 0xf1, 0xf4, 0xd3, 0xe5, 0x27, 0xe4, 0x25, 0x36, 0xed,
  0xf1, 0x11, 0x03, 0x1d, 0x3d, 0x2a, 0xcf, 0x06, 0x12, 0x0e, 0xe3, 0xe6,
  0x0b, 0xf2, 0xdc, 0x16, 0x13, 0xbe, 0x13, 0xd8, 0xf4, 0xf6, 0xd7, 0x03,
  0xf9, 0xc8, 0x07, 0xbd, 0xc6, 0x03, 0x3e, 0x03, 0x05, 0x04, 0xd4, 0x35,
  0x05, 0xf9, 0x0a, 0x03, 0x18, 0x26, 0xf0, 0xdc, 0x20, 0x38, 0xe9, 0x13,
  0xcd, 0xe4, 0x12, 0x28, 0xd2, 0xf0, 0xe1, 0xe7, 0x06, 0x22, 0xff, 0x2c,
  0x34, 0xdf, 0x16, 0xed, 0x47, 0x03, 0xcc, 0xe8, 0x22, 0x1e, 0x28, 0x1b,
  0xcc, 0x14, 0xd7, 0x30, 0xe6, 0xb3, 0x4a, 0x41, 0x19, 0xe7, 0xc7, 0x48,
  0xf5, 0x3b, 0x01, 0xca, 0xcc, 0xef, 0xd2, 0x18, 0x2c, 0xb7, 0x0e, 0xda,
  0xc2, 0x45, 0x26, 0x0e, 0xb1, 0x30, 0x22, 0xfc, 0x27, 0xe9, 0xad, 0x06,
  0xdd, 0xf8, 0xee, 0xf6, 0x3b, 0xbc, 0x3e, 0x4c, 0x01, 0x11, 0xf9, 0xab,
  0x4d, 0xe2, 0x05, 0xe1, 0xf8, 0xd7, 0xf0, 0x38, 0xfa, 0x21, 0xee, 0x0f,
  0x06, 0x28, 0x22, 0xe0, 0xd6, 0xf5, 0xe5, 0xec, 0xdf, 0xf0, 0x2e, 0x3e,
  0xe8, 0x0d, 0xef, 0x18, 0x0f, 0x0f, 0xf1, 0x00, 0xea, 0x24, 0xd2, 0xc6,
  0x0c, 0xd7, 0x1b, 0xcb, 0xf3, 0x18, 0xbf, 0x0f, 0x04, 0xe7, 0xdd, 0xff,
  0xfd, 0xe2, 0xda, 0x28, 0xca, 0xfa, 0xaa, 0xe6, 0xd1, 0xf9, 0xdf, 0x06,
  0x0b, 0xdf, 0xaf, 0xe5, 0x1b, 0x45, 0x31, 0xda, 0x4d, 0xf6, 0x2d, 0x13,
  0xc9, 0xef, 0x0f, 0x2d, 0x14, 0xd6, 0x06, 0xbe, 0x1f, 0x32, 0xfa, 0xf8,
  0x1e, 0x01, 0xbd, 0xfb, 0xdb, 0x3c, 0x33, 0x13, 0xc7, 0x06, 0xee, 0xd9,
  0xda, 0xee, 0xe7, 0x1e, 0x0b, 0xf4, 0xb0, 0x27, 0xe5, 0x00, 0x17, 0x3e,
  0xf1, 0xde, 0x1b, 0x05, 0xff, 0xed, 0x0b, 0xdb, 0xd0, 0x26, 0x26, 0x06,
  0xfa, 0xb1, 0x12, 0x27, 0xe2, 0xe7, 0x92, 0xfd, 0xf6, 0xe2, 0xb9, 0x17,
  0xc3, 0x04, 0xa9, 0xed, 0xe7, 0x16, 0x3b, 0x45, 0xcb, 0xdb, 0xca, 0x01,
  0x4a, 0xeb, 0xb7, 0xca, 0x03, 0xb2, 0x21, 0x13, 0xf6, 0xe5, 0xeb, 0xe3,
  0x51, 0x04, 0xd4, 0xd5, 0xe2, 0x29, 0x54, 0xfb, 0x1a, 0xfb, 0x03, 0xdc,
  0xdb, 0xec, 0x0d, 0xe3, 0x15, 0xe8, 0xdb, 0x1c, 0xdd, 0x01, 0x33, 0xc6,
  0xf8, 0x2d, 0xc8, 0x1d, 0xdd, 0x1b, 0x1f, 0xea, 0xee, 0x0b, 0xd2, 0xba,
  0x37, 0x1a, 0x14, 0xf5, 0x28, 0xbb, 0xf9, 0xed, 0x0e, 0xbf, 0xd8, 0x16,
  0xf7, 0x0e, 0xde, 0xd3, 0xf5, 0x05, 0xd5, 0x1a, 0x11, 0x1f, 0x08, 0x0f,
  0xb7, 0xd6, 0x58, 0xfe, 0xf4, 0x2f, 0x04, 0x2f, 0x0d, 0x32, 0x20, 0xf6,
  0x0c, 0x0f, 0xf6, 0x05, 0xf3, 0xbe, 0xcf, 0x32, 0x4e, 0xe8, 0x38, 0xf8,
  0xfd, 0xe6, 0xf1, 0x53, 0xd7, 0xd2, 0x00, 0x20, 0x39, 0xdc, 0x2e, 0x40,
  0x30, 0x0e, 0x11, 0xc1, 0xc6, 0x29, 0xfe, 0xbc, 0xda, 0x42, 0x2a, 0x2c,
  0xf3, 0x0a, 0xf1, 0x4b, 0xd9, 0xca, 0xd1, 0x13, 0x2b, 0x3a, 0x11, 0x00,
  0xf2, 0x30, 0x43, 0x07, 0xe1, 0xdd, 0x1a, 0x30, 0x03, 0xb8, 0x39, 0xf1,
  0x1e, 0xff, 0x33, 0x34, 0x4a, 0x19, 0x07, 0xbb, 0x0c, 0xe5, 0x0a, 0xef,
  0x07, 0x4d, 0x04, 0x0d, 0x0c, 0x03, 0xe3, 0x27, 0x2e, 0xeb, 0xe8, 0xbc,
  0xf2, 0x11, 0xcb, 0xe4, 0xf2, 0x0f, 0x1e, 0x2a, 0xf9, 0xb2, 0xd1, 0xf1,
  0x4a, 0xd2, 0xbf, 0xcf, 0x00, 0x12, 0x0d, 0x1c, 0xd2, 0xde, 0xb8, 0x54,
  0xd7, 0x11, 0x21, 0xf7, 0xbb, 0xe3, 0xfd, 0xf8, 0x10, 0x18, 0xec, 0x20,
  0x11, 0x06, 0x2b, 0xf0, 0x24, 0xc8, 0x14, 0xe1, 0x2b, 0xf6, 0xe9, 0xea,
  0xe7, 0xff, 0xe8, 0xf1, 0x18, 0x35, 0x06, 0x20, 0x0f, 0x0a, 0x16, 0x2d,
  0x18, 0x06, 0x04, 0xd9, 0x12, 0x59, 0x2b, 0x1a, 0xfa, 0xdd, 0x13, 0xf8,
  0x2d, 0x02, 0x00, 0xf9, 0xd3, 0x19, 0xf2, 0x3a, 0x35, 0xde, 0xf0, 0xfd,
  0x1f, 0xd5, 0xfb, 0xdf, 0xe4, 0xd9, 0xb0, 0x20, 0xf8, 0xef, 0x19, 0xc6,
  0x0f, 0x24, 0xeb, 0x41, 0xe3, 0xf0, 0x33, 0xd1, 0x1c, 0x20, 0x0e, 0xe6,
  0x22, 0xcf, 0x42, 0x27, 0xe2, 0x12, 0x28, 0xe2, 0xeb, 0xfc, 0x09, 0xdf,
  0xe6, 0x51, 0x12, 0x10, 0x01, 0x0d, 0xcb, 0x27, 0x2e, 0x00, 0xd2, 0xf0,
  0xd3, 0x00, 0x21, 0x42, 0xcb, 0x18, 0x25, 0x18, 0xce, 0x04, 0x24, 0xb6,
  0x28, 0xff, 0x28, 0xe6, 0xb7, 0x4f, 0x49, 0xdb, 0xcc, 0xec, 0x30, 0x47,
  0xcd, 0x21, 0x50, 0x4a, 0x1b, 0xed, 0xff, 0x09, 0x07, 0xd1, 0xef, 0x03,
  0xd6, 0xcc, 0x1b, 0x10, 0x06, 0x06, 0xcf, 0x3b, 0x2c, 0xca, 0x4d, 0x05,
  0xca, 0xf7, 0xee, 0x08, 0x2a, 0xdb, 0xaa, 0xfc, 0xc6, 0xbb, 0x31, 0x08,
  0xf4, 0x12, 0x08, 0x04, 0x22, 0xf5, 0xef, 0x3f, 0xc0, 0x0d, 0xe8, 0xfb,
  0xbe, 0xf4, 0xc9, 0xdd, 0xf5, 0x33, 0xf5, 0xd8, 0x24, 0x02, 0x2c, 0x0f,
  0xf4, 0x35, 0x0a, 0xfc, 0xfa, 0x2a, 0x25, 0x34, 0x2f, 0x17, 0x2d, 0xfe,
  0x1e, 0xe1, 0xc2, 0x03, 0x1b, 0x12, 0xd1, 0x13, 0xb1, 0xf2, 0x1f, 0xc6,
  0x1b, 0xd9, 0x16, 0x0a, 0x39, 0x1e, 0x30, 0x0d, 0xe3, 0x02, 0xd1, 0x0c,
  0xb9, 0xbd, 0xd5, 0x2f, 0xb8, 0x55, 0x3a, 0xfc, 0xd1, 0x31, 0xbf, 0xe1,
  0xf8, 0x21, 0x1e, 0xca, 0xad, 0xc7, 0xd3, 0x40, 0x01, 0xdb, 0x29, 0xf9,
  0x24, 0xc2, 0xf6, 0x26, 0xf7, 0x21, 0xef, 0xbf, 0x13, 0x2c, 0x1b, 0x2b,
  0xfc, 0xb6, 0xf8, 0x21, 0x23, 0xfe, 0x36, 0x1a, 0xde, 0x01, 0xb7, 0xc4,
  0xdc, 0xcf, 0x40, 0xc5, 0x25, 0xf9, 0xfd, 0x48, 0x07, 0x14, 0x31, 0x41,
  0xf4, 0x1c, 0x10, 0xff, 0x1b, 0xdc, 0x2a, 0x29, 0x03, 0x00, 0x34, 0xfd,
  0x22, 0xcd, 0xe7, 0xdc, 0x36, 0xe8, 0xf4, 0xdc, 0xec, 0xbf, 0xb4, 0xdb,
  0x23, 0xe4, 0xcf, 0x0c, 0xd6, 0xf0, 0xe8, 0xf3, 0xe5, 0x11, 0x1f, 0x07,
  0xf1, 0xff, 0x12, 0xe3, 0xdf, 0xde, 0xe2, 0x25, 0x16, 0xe3, 0x0a, 0x14,
  0xe6, 0x02, 0x16, 0x0b, 0x42, 0xfc, 0xe9, 0xea, 0x11, 0x0b, 0xf3, 0xb2,
  0xff, 0x31, 0xf3, 0xf9, 0x1b, 0x18, 0xca, 0x02, 0xfd, 0x20, 0xd6, 0x03,
  0x2a, 0xe7, 0xfd, 0xf1, 0xe2, 0xd7, 0x0f, 0x02, 0xd4, 0xd3, 0xf9, 0x05,
  0x4a, 0xf9, 0x2f, 0x15, 0x18, 0x29, 0xaf, 0x09, 0x09, 0x0a, 0xf3, 0xbe,
  0x24, 0x1c, 0xf0, 0xce, 0xea, 0xcf, 0x07, 0x12, 0x10, 0xfc, 0xc4, 0x04,
  0x03, 0x1b, 0xfb, 0xd0, 0x36, 0x20, 0x42, 0x37, 0x40, 0xb9, 0xdd, 0xf5,
  0xcc, 0xd4, 0xc4, 0x02, 0xd1, 0x1e, 0x3a, 0x2d, 0xe1, 0x49, 0xe9, 0xf6,
  0xe3, 0x06, 0xf9, 0xee, 0x36, 0xd3, 0xed, 0x00, 0x2c, 0xab, 0x0d, 0x26,
  0xf8, 0xeb, 0x0c, 0x41, 0x39, 0x24, 0x25, 0x07, 0xf3, 0x08, 0x4f, 0xb2,
  0xec, 0x02, 0x31, 0xed, 0xd8, 0x20, 0xfa, 0x09, 0xe1, 0xe5, 0x2b, 0xcd,
  0xe7, 0xbb, 0x00, 0xd2, 0x32, 0xf2, 0xf6, 0xee, 0xf5, 0x08, 0xdc, 0x22,
  0x19, 0x0b, 0xc7, 0x1e, 0xf7, 0x05, 0xf4, 0x02, 0x29, 0xfd, 0x04, 0xc5,
  0xaf, 0x00, 0xf6, 0x1e, 0xdf, 0x05, 0x20, 0x47, 0x06, 0xd5, 0x4c, 0x01,
  0xd6, 0x25, 0x01, 0xb6, 0x2f, 0x13, 0xfe, 0x03, 0xef, 0x21, 0x06, 0x13,
  0xec, 0x1a, 0x3b, 0xef, 0x3a, 0xc6, 0x4d, 0xea, 0x03, 0x16, 0x23, 0xc6,
  0x46, 0x08, 0x2b, 0x12, 0xce, 0xfa, 0x2e, 0x06, 0xea, 0x00, 0xdb, 0xf0,
  0xc0, 0x2a, 0xf3, 0xfa, 0x0e, 0x04, 0xd1, 0xda, 0xed, 0x05, 0xd8, 0xee,
  0xb6, 0x2d, 0x0e, 0xef, 0xe9, 0xdb, 0x3d, 0x2e, 0x2c, 0xe6, 0xbd, 0xe6,
  0x1b, 0xf0, 0x0f, 0xff, 0xc0, 0x22, 0xd0, 0x15, 0xfb, 0xdb, 0x4c, 0x2f,
  0x07, 0x07, 0x0b, 0x12, 0xc0, 0xec, 0xf6, 0x13, 0x23, 0xb8, 0xde, 0xfe,
  0x01, 0xef, 0x0c, 0xce, 0x29, 0x3b, 0xed, 0xe6, 0xcd, 0x15, 0xda, 0xf8,
  0x05, 0xe3, 0x25, 0x41, 0xf2, 0x15, 0x06, 0xdf, 0x0f, 0xe0, 0xcc, 0xcc,
  0xcc, 0xf7, 0xeb, 0xf2, 0x19, 0x16, 0x07, 0x18, 0x21, 0x10, 0xf7, 0xec,
  0x27, 0x06, 0xcc, 0xff, 0x07, 0x0a, 0xd0, 0xba, 0x0f, 0x07, 0xbb, 0x26,
  0x00, 0xf7, 0xff, 0x24, 0xf5, 0xe4, 0x1f, 0xe8, 0xb4, 0xdf, 0xe9, 0xef,
  0x24, 0xcf, 0x45, 0x2c, 0xe0, 0xd5, 0x05, 0x05, 0x02, 0x23, 0x3a, 0xf0,
  0xfc, 0xd0, 0xf6, 0x34, 0x3b, 0xf8, 0x22, 0x10, 0xfa, 0x28, 0xf3, 0xe7,
  0xe6, 0xe3, 0xd9, 0x53, 0x2c, 0x10, 0xec, 0xec, 0x10, 0xe6, 0xf0, 0x36,
  0x22, 0x06, 0xcf, 0x1c, 0xdb, 0xd7, 0x15, 0xfb, 0x1e, 0x0e, 0xec, 0xf3,
  0x22, 0xb9, 0x09, 0x0f, 0x32, 0x44, 0x05, 0x12, 0xf5, 0xf0, 0x27, 0x00,
  0x26, 0xac, 0x2d, 0xd1, 0xfa, 0x08, 0x16, 0x22, 0xe5, 0xf9, 0xe2, 0xa7,
  0x02, 0xbe, 0x1c, 0xc9, 0xb8, 0x36, 0x4c, 0xf4, 0xe2, 0xcd, 0x27, 0x07,
  0x0c, 0xda, 0xf5, 0x1e, 0xc4, 0x09, 0x24, 0x2e, 0x02, 0x32, 0xc2, 0x16,
  0xfc, 0x41, 0xe5, 0xf7, 0xe8, 0x13, 0xb2, 0xe5, 0x49, 0xf5, 0xc5, 0xea,
  0x46, 0x1e, 0xf1, 0x2e, 0x21, 0xe3, 0xa1, 0x13, 0x05, 0x22, 0xa6, 0x27,
  0xd7, 0x25, 0xcc, 0xf7, 0x8a, 0xcf, 0x09, 0xfc, 0x01, 0xcd, 0x9c, 0xe5,
  0x0a, 0xd6, 0x18, 0xf2, 0xf2, 0x3c, 0x4d, 0x05, 0xe0, 0xc8, 0xd8, 0x0d,
  0x29, 0x36, 0xc7, 0xe3, 0xec, 0xf7, 0x24, 0xff, 0xe1, 0xf7, 0x1d, 0xf9,
  0x09, 0x2b, 0xcc, 0x0f, 0xe6, 0xe3, 0xdc, 0x18, 0x3a, 0x26, 0xe2, 0xb2,
  0x5d, 0xff, 0x18, 0xf6, 0x36, 0xfe, 0xef, 0x27, 0x01, 0xe3, 0xff, 0x19,
  0x36, 0xf7, 0x03, 0xf0, 0x29, 0xe3, 0x15, 0x25, 0xec, 0x04, 0x44, 0x18,
  0x42, 0xfa, 0xf5, 0x0d, 0xe3, 0x13, 0xdc, 0xea, 0x3a, 0x0f, 0x10, 0x2a,
  0xe9, 0xeb, 0x1a, 0x08, 0x21, 0xdf, 0xff, 0x1d, 0xf3, 0xf7, 0xe0, 0xb8,
  0x2e, 0xbb, 0xf1, 0x0c, 0xd7, 0xc4, 0x0c, 0x02, 0xef, 0x03, 0xfb, 0x3e,
  0xcd, 0x01, 0xde, 0xe7, 0xf9, 0x1f, 0xdd, 0x17, 0x19, 0x10, 0xe8, 0x15,
  0x14, 0x1e, 0xe8, 0x10, 0xb6, 0xde, 0x29, 0xde, 0xf1, 0xdb, 0x14, 0xbe,
  0xdc, 0x36, 0xbf, 0xcd, 0xe7, 0xfa, 0x1f, 0x25, 0x01, 0x1e, 0xe8, 0x2f,
  0xe0, 0x03, 0xec, 0xff, 0xe9, 0x32, 0x4b, 0xcf, 0x0e, 0x09, 0x0c, 0xaf,
  0x01, 0xc2, 0xdc, 0xc1, 0xfe, 0xea, 0xbf, 0xf5, 0x3f, 0xe7, 0x22, 0xd3,
  0xd2, 0xdf, 0x2b, 0xeb, 0x0e, 0xc3, 0xd8, 0xbd, 0x24, 0x19, 0x29, 0xf8,
  0x25, 0xad, 0x48, 0xd0, 0xe2, 0x43, 0x30, 0x0f, 0x07, 0x21, 0x13, 0x15,
  0xc8, 0x06, 0xea, 0x37, 0x0a, 0xde, 0xec, 0xb8, 0x06, 0xdc, 0x07, 0xf3,
  0xcb, 0xc9, 0x24, 0xfe, 0xfe, 0xe4, 0xdb, 0x14, 0x0c, 0x00, 0x02, 0xfc,
  0x19, 0x0f, 0xef, 0x07, 0xdc, 0x0d, 0x3b, 0x00, 0xf7, 0xe7, 0xbe, 0x33,
  0x16, 0xf7, 0x24, 0xc0, 0x34, 0x11, 0x47, 0xeb, 0xeb, 0xed, 0xee, 0xf8,
  0x41, 0xb3, 0x1b, 0x17, 0x01, 0x24, 0xbf, 0x1f, 0xd1, 0x0f, 0x0e, 0xd9,
  0x01, 0xc5, 0x0c, 0x31, 0xde, 0x23, 0xd6, 0x27, 0xff, 0x1e, 0xc2, 0x16,
  0x00, 0xfa, 0x3c, 0xed, 0x44, 0x00, 0xfb, 0xfd, 0x0b, 0xf2, 0xe9, 0x02,
  0xf6, 0x16, 0x22, 0x20, 0xb9, 0x25, 0x07, 0xe1, 0xd0, 0x00, 0x0b, 0x4e,
  0xdb, 0xf9, 0xd4, 0xd4, 0xd0, 0xd5, 0xde, 0xf8, 0xe9, 0x06, 0x02, 0xc5,
  0x0f, 0x0c, 0xb9, 0xfe, 0x16, 0xf9, 0x00, 0xef, 0xfa, 0xd0, 0xe4, 0x48,
  0xd2, 0xad, 0x41, 0xf3, 0xf6, 0x38, 0x0c, 0xd5, 0xad, 0x0a, 0x32, 0xe2,
  0x3e, 0xe9, 0x03, 0x15, 0xf1, 0x03, 0x1a, 0x4f, 0xd2, 0x43, 0x26, 0xf0,
  0xc5, 0x2c, 0x3f, 0x36, 0x3f, 0x0c, 0x1f, 0xdf, 0xe8, 0xfd, 0xf0, 0x1f,
  0xf6, 0x16, 0x4e, 0xff, 0xf7, 0xeb, 0x0b, 0x04, 0x3e, 0x19, 0xcb, 0xfc,
  0x4f, 0xfc, 0xba, 0xfa, 0xd6, 0x32, 0xf9, 0xe0, 0xd3, 0x4b, 0x0e, 0x3d,
  0xbe, 0x17, 0xb1, 0x12, 0x25, 0xf1, 0x26, 0x07, 0xdd, 0x09, 0x33, 0xdc,
  0xe0, 0x4a, 0x25, 0xe9, 0x26, 0x44, 0x01, 0x1d, 0x17, 0xf7, 0x05, 0xc0,
  0x2a, 0xe1, 0x14, 0xdc, 0x17, 0xdc, 0x14, 0x14, 0xd5, 0xdf, 0x2e, 0x48,
  0x0d, 0xe6, 0xf7, 0xf3, 0x0e, 0x11, 0x0b, 0xb6, 0x07, 0xd0, 0x49, 0x14,
  0xd9, 0x23, 0x0c, 0x3f, 0x42, 0x06, 0x02, 0x07, 0x13, 0x31, 0xf0, 0xbd,
  0x01, 0xfe, 0x30, 0xf4, 0x25, 0x1a, 0xe4, 0xc0, 0xee, 0x17, 0x07, 0xf1,
  0xfd, 0x02, 0xd4, 0xba, 0x09, 0xf7, 0x0d, 0x0c, 0xb8, 0x39, 0xfd, 0xd5,
  0xe8, 0xea, 0x16, 0xf8, 0x00, 0x07, 0x0c, 0x1d, 0x4b, 0x28, 0xfc, 0xc1,
  0x04, 0xe6, 0xc8, 0x38, 0xd3, 0x0d, 0xad, 0x30, 0xb8, 0x22, 0x0e, 0x01,
  0xa5, 0xd9, 0xee, 0xcf, 0xdf, 0x33, 0x2d, 0x0e, 0x07, 0xd1, 0xbb, 0xb1,
  0x5f, 0xe7, 0x98, 0xe1, 0x23, 0x13, 0x66, 0xeb, 0xfc, 0x39, 0xf2, 0xd5,
  0x05, 0x0a, 0xb9, 0x46, 0xc8, 0x38, 0x18, 0xd4, 0xf5, 0xdf, 0x38, 0x40,
  0xfb, 0x02, 0xd6, 0xdd, 0xfe, 0x18, 0xe0, 0x0d, 0xea, 0x09, 0x1f, 0x0b,
  0x07, 0x16, 0xe8, 0xf8, 0xbc, 0x47, 0x00, 0xc4, 0xf4, 0xce, 0xfc, 0xd7,
  0x2c, 0x0f, 0x0b, 0x24, 0xea, 0xf0, 0xf9, 0x0f, 0x0e, 0x29, 0x06, 0xe3,
  0x02, 0x0c, 0x21, 0x1e, 0xe6, 0x1d, 0xff, 0x0a, 0xc0, 0x2f, 0x25, 0x4e,
  0x28, 0x07, 0x3a, 0x21, 0x3e, 0x31, 0x0b, 0xd1, 0xf3, 0xe6, 0xe3, 0x0b,
  0xef, 0x23, 0x12, 0x21, 0xe1, 0x0d, 0xfb, 0x05, 0x2b, 0xcc, 0xfb, 0xe3,
  0xd6, 0x1c, 0xf5, 0x38, 0x17, 0x09, 0x12, 0xe0, 0xf5, 0x0c, 0x2f, 0x08,
  0x15, 0xdf, 0x19, 0x09, 0x23, 0xfa, 0xfa, 0x1a, 0xf3, 0x07, 0xff, 0xe8,
  0xf5, 0x11, 0x01, 0x2b, 0x3d, 0x2d, 0xfe, 0x12, 0x27, 0x09, 0xfb, 0x1a,
  0x17, 0x13, 0xf0, 0xb2, 0xee, 0x10, 0xd5, 0x30, 0x1e, 0x21, 0x0b, 0xd8,
  0x25, 0xe5, 0x04, 0xe9, 0xea, 0xf1, 0xb5, 0x17, 0x0b, 0x1b, 0x11, 0xfc,
  0xf7, 0xdb, 0x0e, 0xd7, 0xe2, 0x07, 0x22, 0x39, 0xec, 0x41, 0xf9, 0xc9,
  0xe2, 0xe1, 0x19, 0x50, 0x37, 0xfc, 0xe5, 0xf7, 0xcf, 0x2b, 0x1b, 0xe5,
  0xe5, 0xdc, 0xdf, 0x11, 0x25, 0x28, 0xd2, 0x08, 0xfd, 0xc9, 0xfc, 0xe8,
  0xed, 0x3a, 0x30, 0xe7, 0x1a, 0xc0, 0x1e, 0x04, 0x20, 0xf7, 0xe2, 0xf2,
  0x07, 0xf7, 0xfe, 0xec, 0xdd, 0x34, 0xf2, 0x49, 0x4b, 0x0e, 0xe5, 0x42,
  0xcb, 0x2a, 0x2c, 0xe4, 0x04, 0x08, 0xed, 0x11, 0x02, 0x16, 0xfa, 0x00,
  0x00, 0x0e, 0x11, 0xf4, 0xdf, 0x0b, 0xfa, 0xee, 0x1b, 0x4b, 0xe6, 0x19,
  0xe5, 0xc2, 0xea, 0xbf, 0x36, 0xcb, 0x44, 0x4b, 0xc2, 0xcb, 0x04, 0x04,
  0x29, 0x2f, 0xc9, 0x3d, 0x13, 0xd5, 0x43, 0xf1, 0x13, 0xe8, 0xda, 0xcd,
  0xeb, 0xe2, 0x3a, 0xd2, 0x03, 0x08, 0xfb, 0x40, 0xe6, 0x2b, 0xd7, 0x34,
  0xc3, 0x25, 0xf8, 0x09, 0x05, 0x00, 0x1c, 0xaf, 0xae, 0xec, 0xe7, 0x08,
  0xff, 0xc7, 0xff, 0xf0, 0x1d, 0x2b, 0xb6, 0xe6, 0x1d, 0x29, 0xae, 0x19,
  0xd9, 0x24, 0xf5, 0xf8, 0x00, 0x12, 0xe8, 0xc8, 0x00, 0xc3, 0xd1, 0x3e,
  0xff, 0x47, 0xe3, 0xcf, 0xc1, 0xf9, 0x17, 0x38, 0x2a, 0xad, 0xe3, 0xd9,
  0x27, 0x35, 0x08, 0xc1, 0x0a, 0xef, 0x47, 0x1c, 0x2b, 0x0e, 0xf1, 0x22,
  0xf3, 0x13, 0xe3, 0x07, 0xf7, 0xcb, 0x1d, 0xed, 0x48, 0xfd, 0xde, 0x12,
  0xff, 0xdb, 0xdc, 0xe0, 0xbf, 0x26, 0xea, 0xcf, 0xd8, 0x55, 0x11, 0x10,
  0x2a, 0xed, 0x09, 0x26, 0xfa, 0xdf, 0xe0, 0x29, 0x12, 0xe6, 0xf8, 0x03,
  0xee, 0xb9, 0x0d, 0xf9, 0x2e, 0x12, 0x10, 0x36, 0xfc, 0x1e, 0xeb, 0x07,
  0xde, 0xfa, 0xfb, 0xe9, 0xe8, 0x35, 0x10, 0xe7, 0x32, 0x4f, 0x06, 0x1e,
  0x0e, 0xef, 0xe3, 0xf2, 0xfc, 0xb1, 0xf9, 0x1f, 0xd1, 0xff, 0x1e, 0x56,
  0xd9, 0xbf, 0xe3, 0x28, 0x2f, 0xf2, 0xb0, 0xf6, 0xdb, 0xfd, 0x33, 0x0c,
  0xd3, 0x2d, 0xde, 0xd3, 0xe3, 0xf0, 0x21, 0x03, 0xd3, 0xf3, 0xf4, 0xe0,
  0xc2, 0x12, 0xf0, 0x2c, 0x0f, 0x2e, 0xe5, 0xd2, 0xd6, 0xe2, 0x06, 0xdd,
  0xd1, 0x07, 0x05, 0x17, 0xfb, 0xdf, 0x55, 0xcc, 0x06, 0x1c, 0xe8, 0x09,
  0xc5, 0x46, 0x10, 0x03, 0x15, 0x2a, 0xf5, 0x14, 0xd5, 0x09, 0xd8, 0x15,
  0xf6, 0xe0, 0x2c, 0x2f, 0x04, 0xd2, 0xe8, 0xf1, 0x15, 0xfa, 0x1d, 0xe1,
  0xfa, 0x1b, 0x23, 0xf0, 0xec, 0xff, 0xe5, 0xb6, 0x31, 0xac, 0x11, 0x1b,
  0xfd, 0xb1, 0x3b, 0xd9, 0x30, 0xf2, 0xe7, 0x07, 0xea, 0xd1, 0x16, 0xd1,
  0xeb, 0xca, 0x14, 0x25, 0xf5, 0x05, 0xb6, 0x33, 0xeb, 0xe4, 0xf9, 0xcc,
  0xd6, 0xf7, 0x0f, 0xd8, 0x0e, 0x10, 0xd7, 0x3e, 0xee, 0x1e, 0xf2, 0xf2,
  0x02, 0xe5, 0xb2, 0x13, 0x15, 0xf9, 0xc8, 0xaf, 0x14, 0xdd, 0xef, 0x0f,
  0xd2, 0x41, 0x0d, 0xcd, 0x0a, 0x17, 0xd6, 0xdd, 0x25, 0xd1, 0xe8, 0x21,
  0xd7, 0xdc, 0xe9, 0xe9, 0x05, 0x0f, 0x0d, 0xab, 0x1c, 0x2b, 0x18, 0x01,
  0xef, 0x04, 0x20, 0x0e, 0x0f, 0x11, 0x0b, 0xe2, 0xc2, 0x02, 0xe8, 0x1c,
  0x4f, 0x07, 0xe0, 0x24, 0x0d, 0x01, 0x4c, 0xf7, 0x09, 0x23, 0x0e, 0x09,
  0x5f, 0x20, 0x47, 0xc0, 0x02, 0x2a, 0x21, 0xec, 0x03, 0xf8, 0xc7, 0x10,
  0xe0, 0xee, 0x5c, 0xfe, 0x02, 0x2d, 0x41, 0xfc, 0xc4, 0x18, 0xf4, 0x9b,
  0x18, 0xfd, 0x24, 0x08, 0x28, 0xdc, 0x31, 0x07, 0xdb, 0xf6, 0xa9, 0xd1,
  0x2b, 0x3b, 0xbf, 0x09, 0xe1, 0x33, 0x25, 0x19, 0xdc, 0xdd, 0x20, 0x10,
  0x29, 0x08, 0xb8, 0xc0, 0xc3, 0x1a, 0x32, 0xe6, 0x26, 0xf0, 0x31, 0x3e,
  0x26, 0x1f, 0xcb, 0x27, 0xcd, 0xfb, 0xd6, 0xf3, 0xe8, 0x21, 0x2b, 0xfe,
  0x12, 0x01, 0xfb, 0xca, 0x04, 0x31, 0x36, 0xfb, 0xfb, 0x22, 0xf2, 0x1b,
  0x50, 0x25, 0xd4, 0xf3, 0xcb, 0x0e, 0x3f, 0xf2, 0xe1, 0x0a, 0xe0, 0x12,
  0xff, 0xff, 0xe6, 0x00, 0x4e, 0xeb, 0x29, 0x2e, 0x1a, 0x29, 0xbc, 0x27,
  0x1c, 0x2c, 0xe1, 0x08, 0x26, 0x4c, 0xdc, 0xdd, 0x04, 0x02, 0xf9, 0xf9,
  0xcc, 0xaa, 0x21, 0x11, 0xf6, 0x07, 0xfd, 0x4e, 0x09, 0x0a, 0x35, 0xb6,
  0x32, 0xd6, 0x30, 0x0f, 0xfe, 0x11, 0x03, 0xcd, 0x08, 0xef, 0xcc, 0xe7,
  0x55, 0xf8, 0xfa, 0x0c, 0xfd, 0xee, 0x09, 0x3f, 0x02, 0xfe, 0x06, 0xbf,
  0x1e, 0xe8, 0xf4, 0xd1, 0x08, 0x28, 0xcd, 0x24, 0x16, 0x00, 0x09, 0x11,
  0x43, 0x47, 0xf6, 0x0b, 0x39, 0x20, 0x1b, 0x34, 0x2f, 0xd5, 0x24, 0xdd,
  0x34, 0x22, 0x08, 0x07, 0xfd, 0xd2, 0x22, 0xf7, 0xfd, 0xd5, 0x05, 0x05,
  0xb6, 0xfb, 0xfc, 0xcf, 0xfc, 0x0b, 0x0e, 0x08, 0x08, 0xf5, 0x17, 0x3d,
  0xc5, 0x48, 0xe4, 0x31, 0x11, 0x35, 0x0b, 0x10, 0x2e, 0xf3, 0x31, 0xb6,
  0xed, 0x1b, 0x29, 0xc1, 0xd7, 0x22, 0x26, 0xbc, 0x29, 0xdf, 0xc4, 0xff,
  0x04, 0xc2, 0xe9, 0xe1, 0xfd, 0xb3, 0x1c, 0xc1, 0xd0, 0xd7, 0xbf, 0xc1,
  0x21, 0x06, 0x25, 0x0b, 0xed, 0xc1, 0xfa, 0xdd, 0x0c, 0x0d, 0xfc, 0xfe,
  0x05, 0x15, 0x19, 0xee, 0x1b, 0xdd, 0xc9, 0xbd, 0x07, 0x30, 0xd1, 0x19,
  0x3b, 0xff, 0xb1, 0x23, 0x0c, 0xf5, 0xda, 0x05, 0xfd, 0xaf, 0x03, 0xff,
  0x47, 0x50, 0xe5, 0x0d, 0x0e, 0xd6, 0x0e, 0x43, 0x37, 0xe9, 0x16, 0x2e,
  0x2c, 0xb8, 0xb4, 0xfb, 0x09, 0xe9, 0xd5, 0xc7, 0x1e, 0x06, 0xe7, 0xe0,
  0x2e, 0x32, 0x16, 0xf4, 0xe3, 0x20, 0x20, 0xf6, 0xc0, 0xcb, 0xd1, 0xd8,
  0x09, 0x2d, 0xf3, 0x02, 0x3a, 0x02, 0x3c, 0xfe, 0x24, 0xf9, 0x3d, 0xec,
  0xdc, 0xe8, 0x2e, 0x1f, 0xf2, 0xe3, 0xd7, 0xe5, 0xd6, 0x06, 0xce, 0xec,
  0xfe, 0xc8, 0x1f, 0x14, 0xed, 0x48, 0xe6, 0x23, 0xf1, 0xed, 0xea, 0x1c,
  0x11, 0xf6, 0x3c, 0x0b, 0xf6, 0xcc, 0xa0, 0x08, 0x3c, 0xd2, 0x06, 0xf0,
  0xf3, 0xe0, 0xdf, 0x28, 0x01, 0xcb, 0xfa, 0x0f, 0xe5, 0x05, 0x0c, 0xfa,
  0x29, 0xab, 0xa6, 0x06, 0x08, 0x1f, 0x07, 0x34, 0x23, 0xe9, 0xda, 0xe3,
  0x0a, 0xe9, 0x0b, 0xba, 0xd3, 0xd9, 0x38, 0x03, 0x16, 0x1b, 0xff, 0x24,
  0xd8, 0x08, 0x1f, 0xf7, 0xc3, 0xf3, 0xe8, 0xb4, 0x0d, 0x19, 0xff, 0xff,
  0x16, 0x22, 0xc1, 0xd4, 0xe1, 0xba, 0x4d, 0xfb, 0x08, 0xf5, 0x1e, 0xbe,
  0x11, 0xfe, 0xaf, 0x2c, 0x08, 0xff, 0x51, 0x11, 0xf8, 0x1d, 0x15, 0x4d,
  0x29, 0x0b, 0x10, 0xeb, 0x35, 0xd8, 0x1c, 0x12, 0x05, 0x0a, 0xd0, 0x25,
  0xdf, 0x33, 0xe5, 0xf4, 0x08, 0x4a, 0x0b, 0x13, 0x30, 0x18, 0xf4, 0xe9,
  0xc5, 0xfa, 0x23, 0xc1, 0xc5, 0x46, 0x19, 0x1d, 0xd5, 0xea, 0xf8, 0x36,
  0xef, 0xe5, 0xd6, 0x19, 0x41, 0x06, 0x1a, 0xcb, 0x25, 0x16, 0xd9, 0x25,
  0x2f, 0x11, 0xd6, 0x14, 0xf6, 0xee, 0x08, 0xf8, 0x18, 0x20, 0xe7, 0x14,
  0x28, 0xfa, 0x14, 0xe0, 0xdb, 0x38, 0x17, 0xdd, 0x2b, 0xa8, 0xef, 0x01,
  0x12, 0xb1, 0x0d, 0x27, 0xfe, 0x1a, 0xfb, 0x13, 0xe3, 0xca, 0xd8, 0x37,
  0x21, 0x10, 0xd0, 0x3e, 0xdb, 0xd6, 0x1f, 0x22, 0xe9, 0xfd, 0xec, 0xef,
  0xfa, 0xe8, 0x41, 0x14, 0xf8, 0x09, 0xaa, 0xfa, 0xf7, 0xc7, 0x0e, 0x43,
  0xa3, 0x14, 0x43, 0xc9, 0x03, 0x0f, 0x05, 0xfe, 0xcf, 0x31, 0x15, 0xe2,
  0x13, 0x0b, 0xe1, 0x2a, 0x30, 0x28, 0xc8, 0xc8, 0x27, 0xff, 0x11, 0x12,
  0x10, 0x18, 0x4a, 0x0d, 0xf4, 0x1c, 0x0a, 0xf7, 0x28, 0x00, 0xfb, 0x1a,
  0x01, 0xfd, 0xe9, 0x14, 0xda, 0x38, 0x1a, 0xee, 0xf5, 0xba, 0xf9, 0x0b,
  0xcc, 0xd3, 0xe9, 0x19, 0xec, 0xfd, 0x01, 0xba, 0xcf, 0x2d, 0xf5, 0xc7,
  0x44, 0x22, 0x4a, 0xf6, 0xd4, 0xe4, 0x1d, 0x24, 0x0f, 0xe4, 0x1d, 0xed,
  0x16, 0xe1, 0x24, 0x0b, 0x36, 0x04, 0x13, 0xbc, 0x46, 0x0a, 0xc3, 0xd4,
  0xfa, 0xb3, 0xc4, 0x07, 0x10, 0x21, 0xe1, 0xe4, 0xf6, 0xe2, 0x32, 0xec,
  0x54, 0xc1, 0x24, 0xd7, 0xf7, 0xac, 0x2e, 0x25, 0x09, 0xbd, 0xc9, 0xea,
  0xe9, 0xd7, 0x02, 0xe1, 0xf5, 0xe7, 0xf8, 0xde, 0x00, 0x07, 0xf7, 0x0b,
  0xf4, 0xbd, 0x27, 0x1c, 0xd6, 0xc4, 0x4a, 0xeb, 0x14, 0xfa, 0xda, 0xfb,
  0x18, 0xc7, 0xf4, 0xe0, 0x05, 0xf8, 0xe9, 0x09, 0xd1, 0x1c, 0x4b, 0x1e,
  0x37, 0xfd, 0x0d, 0xf3, 0x39, 0x02, 0x4b, 0xec, 0x0b, 0x22, 0x04, 0x2a,
  0xcf, 0x06, 0xcf, 0x21, 0x05, 0xf1, 0xe5, 0x19, 0x2c, 0x41, 0x26, 0xd9,
  0xf5, 0x1c, 0x1b, 0xb0, 0x35, 0x3a, 0xe3, 0xe4, 0xd8, 0xd3, 0x32, 0x0f,
  0xed, 0xda, 0x00, 0x21, 0x07, 0x00, 0x0c, 0xd7, 0x18, 0x47, 0x1e, 0x2c,
  0xe2, 0x04, 0x1e, 0xe6, 0xc1, 0x34, 0x44, 0xec, 0xec, 0xd6, 0x20, 0xe9,
  0x15, 0xfe, 0xf0, 0x0f, 0xec, 0x1d, 0x41, 0xd9, 0x03, 0x43, 0x02, 0x3e,
  0x09, 0x00, 0xe2, 0xc1, 0x4a, 0x37, 0xcf, 0xf3, 0xff, 0x18, 0x4d, 0x49,
  0xb9, 0xf8, 0x15, 0x03, 0x08, 0xe4, 0x09, 0x14, 0xf4, 0x39, 0xd4, 0x21,
  0xcc, 0xb6, 0xfb, 0x1c, 0x00, 0x17, 0x42, 0xd4, 0xec, 0x1a, 0xe4, 0x02,
  0xdb, 0xdf, 0x0f, 0x2e, 0x1b, 0x28, 0x13, 0xf3, 0xc7, 0x0a, 0x44, 0x13,
  0x13, 0x03, 0xde, 0x0c, 0xf6, 0x26, 0xfb, 0xdb, 0xc3, 0x2b, 0x1c, 0xed,
  0x2e, 0xfb, 0xeb, 0x2d, 0x10, 0x2d, 0xd3, 0xf8, 0x00, 0x0d, 0x04, 0xf8,
  0xf9, 0xec, 0xef, 0xfa, 0xe6, 0x12, 0x5f, 0xe2, 0xdb, 0xd9, 0xe3, 0xfa,
  0x39, 0xfa, 0x33, 0x25, 0x4b, 0x2e, 0x46, 0x08, 0x40, 0x08, 0x09, 0xf6,
  0x15, 0x04, 0x35, 0xd8, 0xe0, 0x27, 0xe6, 0x1d, 0x02, 0xef, 0x07, 0xff,
  0xb4, 0x49, 0xec, 0xc6, 0x06, 0xe4, 0x13, 0x0a, 0x4c, 0x46, 0xe1, 0xbd,
  0x29, 0xdf, 0x2c, 0x21, 0xfa, 0x1b, 0x20, 0x28, 0x2d, 0xd9, 0xcb, 0x11,
  0x1c, 0xd7, 0x34, 0xf4, 0x08, 0x2f, 0x0d, 0xc9, 0x17, 0xe9, 0xab, 0xb1,
  0x19, 0xf1, 0xd6, 0x0d, 0xd8, 0xe0, 0x33, 0x0b, 0xfe, 0x45, 0xfb, 0x2c,
  0x0e, 0xe1, 0x20, 0xf8, 0x1a, 0xeb, 0x59, 0x04, 0x2b, 0x0b, 0x4a, 0xde,
  0x37, 0x15, 0xe7, 0x2a, 0x2d, 0x00, 0x2b, 0xf0, 0xfa, 0x09, 0x14, 0x34,
  0xfd, 0xbb, 0x00, 0xf5, 0xe8, 0x2c, 0x51, 0x03, 0xf8, 0xf8, 0x24, 0xe4,
  0x22, 0x25, 0x12, 0x47, 0x18, 0x05, 0x0a, 0xc8, 0xec, 0x0a, 0xf6, 0x1b,
  0x03, 0x10, 0xed, 0x0e, 0xc2, 0xf0, 0x29, 0xdc, 0x1c, 0xf1, 0x11, 0x26,
  0xed, 0xec, 0x20, 0x29, 0x37, 0x21, 0x44, 0xfd, 0x23, 0xee, 0xd2, 0x44,
  0x01, 0x4a, 0xec, 0x13, 0x1a, 0xef, 0x21, 0x49, 0xe9, 0xe7, 0xf4, 0x1f,
  0xff, 0xbf, 0x28, 0x13, 0x34, 0xd4, 0xbd, 0xd4, 0x3a, 0x03, 0xda, 0x37,
  0xb3, 0x02, 0x38, 0x39, 0x11, 0xbb, 0xf0, 0x26, 0xfb, 0xf1, 0xe3, 0x07,
  0xf3, 0xb4, 0x10, 0x1a, 0x06, 0xdb, 0xb8, 0x38, 0x4d, 0x23, 0xf3, 0x04,
  0xd2, 0xf8, 0xe7, 0xf3, 0x06, 0xea, 0xf4, 0x1e, 0xfd, 0x12, 0xf8, 0xe2,
  0xd5, 0x25, 0xf2, 0xf7, 0xe9, 0xd1, 0xe4, 0x04, 0x20, 0xe3, 0xfa, 0x02,
  0x1e, 0x15, 0x05, 0xd3, 0x22, 0xb7, 0x12, 0xfe, 0xde, 0xe5, 0xef, 0x12,
  0x24, 0xc0, 0xdb, 0xed, 0x22, 0xd6, 0xe8, 0xd6, 0x14, 0x01, 0x0a, 0xb1,
  0x2f, 0x24, 0xea, 0xc9, 0x2c, 0xcb, 0x0b, 0x0d, 0xf3, 0xf5, 0xf5, 0xa3,
  0x3c, 0x18, 0x1c, 0x47, 0x08, 0x1b, 0x05, 0x13, 0xe6, 0x27, 0x30, 0xf4,
  0xd9, 0x18, 0x18, 0xbe, 0xdf, 0x0d, 0x06, 0x13, 0xcb, 0xfb, 0x04, 0x36,
  0x3b, 0xcf, 0x16, 0x0b, 0x15, 0x30, 0x4c, 0xe1, 0xf0, 0xef, 0xcd, 0x4c,
  0x13, 0x4e, 0x06, 0xed, 0x16, 0x3c, 0xfe, 0x1d, 0xce, 0xc6, 0x16, 0x31,
  0xd5, 0xd4, 0xdb, 0xe1, 0xdd, 0xd1, 0x10, 0x24, 0xd7, 0xf1, 0xe3, 0xf6,
  0xd4, 0xed, 0xc7, 0xf3, 0xf7, 0x12, 0xfd, 0x04, 0xf8, 0x15, 0xfd, 0xbb,
  0x0f, 0x14, 0xf6, 0xd3, 0xcc, 0xe2, 0x07, 0xfb, 0x09, 0x0c, 0x26, 0xd2,
  0xf5, 0x03, 0x45, 0x0e, 0xdd, 0x2f, 0xc9, 0xd3, 0x13, 0x3e, 0x3f, 0xd8,
  0xee, 0x3e, 0xdb, 0x45, 0xd0, 0xfa, 0xff, 0xff, 0xd4, 0xfa, 0xff, 0xff,
  0x0a, 0xfb, 0xff, 0xff, 0x04, 0x00, 0x00, 0x00, 0xee, 0x02, 0x00, 0x00,
  0xf7, 0x4d, 0x21, 0xe8, 0xf5, 0xd9, 0x00, 0x6e, 0xe0, 0x51, 0x0b, 0x0c,
  0x13, 0x23, 0x55, 0x0d, 0x08, 0xbd, 0x45, 0xbd, 0x28, 0xff, 0x2c, 0xf0,
  0xf5, 0x02, 0xf1, 0x11, 0xe4, 0xbe, 0x23, 0xcb, 0x47, 0x27, 0x24, 0xc6,
  0x39, 0x14, 0x2a, 0xe1, 0x59, 0x0e, 0x1c, 0x04, 0x2c, 0x08, 0xdf, 0x19,
  0xe6, 0xd6, 0x11, 0xfa, 0xf5, 0x43, 0xe6, 0xf5, 0xb4, 0x01, 0xbd, 0xce,
  0xd0, 0x37, 0xf2, 0xf1, 0xde, 0x3c, 0xb9, 0xf4, 0xfc, 0xd5, 0x24, 0x05,
  0xce, 0xf3, 0xd5, 0xcf, 0xcf, 0xe7, 0xec, 0xcb, 0xf3, 0xe1, 0x0e, 0xd6,
  0xdc, 0x25, 0xb7, 0x1a, 0x29, 0xb9, 0xfc, 0xe9, 0x25, 0xe2, 0xf1, 0xf4,
  0x11, 0x35, 0x38, 0xf8, 0xf0, 0xe2, 0xdd, 0xeb, 0xa7, 0xe2, 0x23, 0xde,
  0xd7, 0xd4, 0xf4, 0x29, 0xfb, 0xf9, 0x1b, 0xd7, 0x01, 0x0e, 0x06, 0xef,
  0xdf, 0x2c, 0xbd, 0x45, 0x4f, 0xea, 0x1a, 0x13, 0xfe, 0xe9, 0x10, 0xf2,
  0xda, 0xcc, 0x10, 0x2e, 0xd3, 0x1a, 0x1e, 0x15, 0xaa, 0x04, 0x15, 0xf2,
  0xe6, 0xaf, 0xbe, 0xca, 0xea, 0x00, 0x25, 0xc8, 0xca, 0x1c, 0x55, 0xc8,
  0xf2, 0x08, 0x28, 0xf4, 0xc0, 0xfd, 0x03, 0x00, 0xf3, 0x1b, 0xe2, 0xc2,
  0xec, 0xf9, 0xd8, 0x27, 0xfa, 0x10, 0xfa, 0xe5, 0xff, 0x04, 0xdb, 0x1c,
  0xf6, 0xfc, 0xd0, 0x36, 0xad, 0x00, 0xfb, 0xdf, 0xd8, 0x10, 0x00, 0xe2,
  0xa8, 0x05, 0x12, 0x32, 0xc3, 0xd9, 0xdc, 0xf8, 0x0a, 0x62, 0xe3, 0xfa,
  0xe4, 0xdf, 0xc7, 0x1b, 0xf8, 0x0d, 0x24, 0x3d, 0xe7, 0x4d, 0x52, 0x38,
  0xe0, 0x02, 0xf8, 0x09, 0x18, 0x1d, 0x06, 0xdb, 0xc5, 0xd6, 0x14, 0xdd,
  0xd3, 0x18, 0x4a, 0xed, 0xf4, 0xfb, 0x06, 0x41, 0xf5, 0xa4, 0x12, 0xf2,
  0x12, 0x01, 0x26, 0x49, 0xac, 0x43, 0xe4, 0x30, 0xe1, 0x35, 0x57, 0x1f,
  0x1a, 0x20, 0x33, 0xbe, 0x14, 0xf9, 0x27, 0x22, 0xef, 0xee, 0xa4, 0xd7,
  0xe2, 0x0c, 0xc6, 0xff, 0xf7, 0xcb, 0xf7, 0xe8, 0x51, 0xdb, 0x27, 0xcb,
  0x2d, 0xff, 0x00, 0x08, 0x1f, 0x16, 0x1b, 0x11, 0xf7, 0xb4, 0xde, 0xcd,
  0xf5, 0xd8, 0x46, 0xf2, 0xa5, 0xaa, 0x03, 0xe4, 0x20, 0x2b, 0xc6, 0xee,
  0xf1, 0xf9, 0x53, 0xde, 0x21, 0x25, 0x3f, 0x0c, 0xb6, 0x2f, 0xff, 0xec,
  0x23, 0x37, 0xdc, 0xa4, 0x44, 0x0f, 0xc1, 0xad, 0xd5, 0x0f, 0x0e, 0x2d,
  0xe3, 0x20, 0x53, 0xdb, 0x1e, 0x04, 0xf9, 0x22, 0xdc, 0x02, 0xca, 0x3f,
  0x23, 0xfd, 0x2d, 0x0d, 0xe8, 0xf8, 0xec, 0x37, 0xec, 0xc8, 0x05, 0x16,
  0xf2, 0xfc, 0x18, 0xe3, 0x20, 0xd4, 0xf1, 0x5a, 0x44, 0xfa, 0x0b, 0x32,
  0xfa, 0xed, 0x69, 0x00, 0x1c, 0x19, 0x3b, 0xfc, 0xce, 0x2e, 0xe3, 0xf9,
  0xe5, 0x49, 0x14, 0xdb, 0x07, 0xf7, 0x04, 0x09, 0xd6, 0x64, 0x1b, 0xce,
  0x11, 0x3a, 0xc7, 0xd9, 0xd5, 0x26, 0xcf, 0xf4, 0xdb, 0x2e, 0xd3, 0x07,
  0x04, 0xce, 0x10, 0xdf, 0xaa, 0x3f, 0xd7, 0x34, 0x02, 0xf8, 0x0c, 0xeb,
  0xd9, 0xd0, 0xe6, 0xc1, 0x16, 0x12, 0x21, 0xd5, 0x05, 0xd9, 0x23, 0xd3,
  0x3b, 0xd8, 0xc9, 0x0d, 0x1c, 0xe6, 0xea, 0x39, 0x27, 0x38, 0x0c, 0x06,
  0x1a, 0xbc, 0x0e, 0x16, 0xf8, 0x1e, 0xff, 0x02, 0x03, 0xf6, 0xb9, 0xb0,
  0x11, 0xdf, 0xf2, 0x32, 0xf2, 0xcc, 0x27, 0x18, 0x35, 0xd8, 0xc3, 0xd3,
  0xcb, 0x31, 0x43, 0xf1, 0xf4, 0x5f, 0x28, 0x59, 0x18, 0xd0, 0xe8, 0xe1,
  0x34, 0x25, 0xe0, 0xdc, 0x01, 0x3c, 0x0c, 0x49, 0xf5, 0xc5, 0xd4, 0xe4,
  0x1e, 0x33, 0xc3, 0xb2, 0x02, 0xd1, 0xd0, 0x31, 0xb5, 0x10, 0x20, 0x12,
  0x3c, 0x1e, 0x03, 0x18, 0x08, 0x76, 0xcf, 0x35, 0xb1, 0xd9, 0xe8, 0xff,
  0x25, 0x0a, 0x4a, 0xc3, 0xe3, 0xe6, 0xef, 0x2b, 0x2c, 0x0d, 0xc4, 0xec,
  0x48, 0x16, 0x14, 0x01, 0x4d, 0x2d, 0xfb, 0x59, 0xea, 0x25, 0x04, 0x09,
  0xd1, 0x14, 0x41, 0x4a, 0x28, 0xe4, 0x32, 0x53, 0x13, 0x3c, 0xa6, 0xe5,
  0xbc, 0x2f, 0x10, 0x1b, 0xe3, 0x3b, 0xe2, 0xfc, 0x00, 0xd0, 0x46, 0xd7,
  0xe8, 0xd9, 0x21, 0x23, 0xde, 0xd9, 0xd0, 0x15, 0xff, 0x16, 0xc0, 0xec,
  0x27, 0x4b, 0x42, 0xe5, 0xf7, 0xd1, 0xf7, 0xd6, 0xcc, 0x16, 0xe4, 0xf9,
  0xd5, 0xbb, 0xf2, 0xf8, 0xea, 0x30, 0x31, 0x37, 0x5b, 0x2f, 0x14, 0xcf,
  0xda, 0xfe, 0xeb, 0xb5, 0xe1, 0xd5, 0x38, 0x29, 0xdb, 0xcc, 0x2f, 0xda,
  0x6b, 0x24, 0x61, 0xd5, 0x2e, 0x04, 0x0b, 0x4d, 0x2b, 0x23, 0xe2, 0x1e,
  0xcb, 0x7f, 0x14, 0x2a, 0xd5, 0x14, 0x4c, 0x44, 0x25, 0xa8, 0xe1, 0xd6,
  0x0e, 0x39, 0xf4, 0xed, 0x03, 0x30, 0x08, 0x0b, 0x3d, 0x06, 0x2c, 0xee,
  0x00, 0x00, 0x26, 0xef, 0x46, 0xdf, 0x00, 0xd8, 0x26, 0x12, 0x53, 0x59,
  0xf0, 0x52, 0x06, 0xf6, 0xd7, 0x01, 0x4d, 0x56, 0x4e, 0xe7, 0xd5, 0xe7,
  0xdf, 0xe2, 0xf2, 0x2a, 0x1e, 0xc7, 0x2e, 0xdb, 0x54, 0x19, 0x27, 0xe7,
  0xf0, 0x3f, 0xf2, 0xf8, 0xf2, 0x0d, 0xd3, 0x0e, 0x0e, 0x15, 0xef, 0xe5,
  0xe8, 0x11, 0xc5, 0x30, 0x03, 0xf8, 0xec, 0x1b, 0xe4, 0xe9, 0xb4, 0xf9,
  0x20, 0xc6, 0x15, 0x1b, 0x20, 0x28, 0xac, 0x08, 0xab, 0x2b, 0xf5, 0x1b,
  0xc9, 0xf1, 0xb9, 0x31, 0x0f, 0xce, 0x00, 0x0a, 0xdf, 0x0c, 0x00, 0x21,
  0x3c, 0x22, 0x53, 0x45, 0x2c, 0x13, 0xd8, 0xf3, 0xc6, 0x33, 0x02, 0xe6,
  0xcd, 0xf0, 0xac, 0xea, 0x15, 0x05, 0xca, 0x15, 0xf4, 0xd5, 0xd4, 0xdd,
  0x46, 0x2d, 0x29, 0x0c, 0x10, 0x00, 0x00, 0x00, 0xd4, 0xfd, 0xff, 0xff,
  0x0a, 0xfe, 0xff, 0xff, 0x04, 0x00, 0x00, 0x00, 0xc8, 0x00, 0x00, 0x00,
  0x81, 0x0d, 0x00, 0x00, 0xb7, 0x18, 0x00, 0x00, 0x91, 0x14, 0x00, 0x00,
  0xc2, 0xfe, 0xff, 0xff, 0x02, 0xf7, 0xff, 0xff, 0x65, 0x04, 0x00, 0x00,
  0xb4, 0x06, 0x00, 0x00, 0xdd, 0x18, 0x00, 0x00, 0x1c, 0x0a, 0x00, 0x00,
  0xd8, 0x05, 0x00, 0x00, 0x0c, 0xfd, 0xff, 0xff, 0x54, 0x15, 0x00, 0x00,
  0xc4, 0x01, 0x00, 0x00, 0x98, 0x29, 0x00, 0x00, 0x24, 0x10, 0x00, 0x00,
  0xbe, 0x05, 0x00, 0x00, 0xd0, 0x0a, 0x00, 0x00, 0x12, 0xfa, 0xff, 0xff,
  0xbf, 0x0d, 0x00, 0x00, 0xae, 0x0c, 0x00, 0x00, 0x6e, 0xff, 0xff, 0xff,
  0x06, 0x00, 0x00, 0x00, 0x2f, 0xfa, 0xff, 0xff, 0xa5, 0x09, 0x00, 0x00,
  0x36, 0xf8, 0xff, 0xff, 0x42, 0x09, 0x00, 0x00, 0x7a, 0xff, 0xff, 0xff,
  0xbf, 0xf7, 0xff, 0xff, 0x72, 0xf7, 0xff, 0xff, 0x73, 0xfa, 0xff, 0xff,
  0x8b, 0x0b, 0x00, 0x00, 0x39, 0x0b, 0x00, 0x00, 0x01, 0x09, 0x00, 0x00,
  0xe4, 0xfb, 0xff, 0xff, 0x65, 0x04, 0x00, 0x00, 0xf5, 0x0a, 0x00, 0x00,
  0xbd, 0xfe, 0xff, 0xff, 0xdc, 0xfd, 0xff, 0xff, 0xc0, 0x00, 0x00, 0x00,
  0x2d, 0x00, 0x00, 0x00, 0xc4, 0x14, 0x00, 0x00, 0x94, 0xff, 0xff, 0xff,
  0x23, 0x0b, 0x00, 0x00, 0x06, 0x0b, 0x00, 0x00, 0x56, 0xfa, 0xff, 0xff,
  0xbf, 0x0a, 0x00, 0x00, 0xe5, 0xff, 0xff, 0xff, 0x6c, 0x1d, 0x00, 0x00,
  0xa4, 0xfa, 0xff, 0xff, 0x03, 0x05, 0x00, 0x00, 0xde, 0xfe, 0xff, 0xff,
  0x04, 0x00, 0x00, 0x00, 0x3c, 0x00, 0x00, 0x00, 0x1a, 0x14, 0x00, 0x00,
  0x12, 0xfc, 0xff, 0xff, 0x31, 0x05, 0x00, 0x00, 0xc9, 0xff, 0xff, 0xff,
  0x17, 0x16, 0x00, 0x00, 0x38, 0xf9, 0xff, 0xff, 0x6a, 0xfd, 0xff, 0xff,
  0x1b, 0x05, 0x00, 0x00, 0xf3, 0xfd, 0xff, 0xff, 0xf9, 0x13, 0x00, 0x00,
  0x1c, 0x01, 0x00, 0x00, 0x4a, 0x01, 0x00, 0x00, 0x1a, 0x1a, 0x00, 0x00,
  0xa4, 0x02, 0x00, 0x00, 0x76, 0xfc, 0xff, 0xff, 0x26, 0xff, 0xff, 0xff,
  0x04, 0x00, 0x00, 0x00, 0x1e, 0x00, 0x00, 0x00, 0x12, 0xd7, 0x01, 0x2d,
  0x38, 0xe9, 0x17, 0xcd, 0x36, 0x6a, 0x81, 0x21, 0x4c, 0xd8, 0xbd, 0xb6,
  0x2c, 0x22, 0x33, 0xbb, 0xef, 0x5d, 0x49, 0x0d, 0xfe, 0x0d, 0x39, 0xc1,
  0x23, 0xf4, 0x00, 0x00, 0x52, 0xff, 0xff, 0xff, 0x04, 0x00, 0x00, 0x00,
  0x08, 0x00, 0x00, 0x00, 0x14, 0x09, 0x00, 0x00, 0xec, 0xf6, 0xff, 0xff,
  0x34, 0xff, 0xff, 0xff, 0x0f, 0x00, 0x00, 0x00, 0x54, 0x4f, 0x43, 0x4f,
  0x20, 0x43, 0x6f, 0x6e, 0x76, 0x65, 0x72, 0x74, 0x65, 0x64, 0x2e, 0x00,
  0x01, 0x00, 0x00, 0x00, 0x04, 0x00, 0x00, 0x00, 0x00, 0xf9, 0xff, 0xff,
  0x94, 0x01, 0x00, 0x00, 0x88, 0x01, 0x00, 0x00, 0x7c, 0x01, 0x00, 0x00,
  0x04, 0x00, 0x00, 0x00, 0x06, 0x00, 0x00, 0x00, 0x50, 0x01, 0x00, 0x00,
  0x04, 0x01, 0x00, 0x00, 0xbc, 0x00, 0x00, 0x00, 0x74, 0x00, 0x00, 0x00,
  0x38, 0x00, 0x00, 0x00, 0x04, 0x00, 0x00, 0x00, 0xd2, 0xfe, 0xff, 0xff,
  0x03, 0x00, 0x00, 0x00, 0x10, 0x00, 0x00, 0x00, 0x04, 0x00, 0x00, 0x00,
  0x01, 0x00, 0x00, 0x00, 0x0c, 0x00, 0x00, 0x00, 0x01, 0x00, 0x00, 0x00,
  0x00, 0x00, 0x00, 0x00, 0x00, 0x00, 0x0e, 0x00, 0x1a, 0x00, 0x08, 0x00,
  0x0c, 0x00, 0x10, 0x00, 0x07, 0x00, 0x14, 0x00, 0x0e, 0x00, 0x00, 0x00,
  0x00, 0x00, 0x00, 0x09, 0x01, 0x00, 0x00, 0x00, 0x24, 0x00, 0x00, 0x00,
  0x18, 0x00, 0x00, 0x00, 0x0c, 0x00, 0x00, 0x00, 0x00, 0x00, 0x06, 0x00,
  0x08, 0x00, 0x04, 0x00, 0x06, 0x00, 0x00, 0x00, 0x00, 0x00, 0x80, 0x3f,
  0x01, 0x00, 0x00, 0x00, 0x00, 0x00, 0x00, 0x00, 0x01, 0x00, 0x00, 0x00,
  0x08, 0x00, 0x00, 0x00, 0xca, 0xff, 0xff, 0xff, 0x00, 0x00, 0x00, 0x08,
  0x1c, 0x00, 0x00, 0x00, 0x10, 0x00, 0x00, 0x00, 0x08, 0x00, 0x00, 0x00,
  0x04, 0x00, 0x04, 0x00, 0x04, 0x00, 0x00, 0x00, 0x01, 0x00, 0x00, 0x00,
  0x08, 0x00, 0x00, 0x00, 0x03, 0x00, 0x00, 0x00, 0x07, 0x00, 0x00, 0x00,
  0x09, 0x00, 0x00, 0x00, 0x0a, 0x00, 0x00, 0x00, 0x00, 0x00, 0x0e, 0x00,
  0x14, 0x00, 0x00, 0x00, 0x08, 0x00, 0x0c, 0x00, 0x07, 0x00, 0x10, 0x00,
  0x0e, 0x00, 0x00, 0x00, 0x00, 0x00, 0x00, 0x08, 0x1c, 0x00, 0x00, 0x00,
  0x10, 0x00, 0x00, 0x00, 0x04, 0x00, 0x00, 0x00, 0xba, 0xff, 0xff, 0xff,
  0x00, 0x00, 0x00, 0x01, 0x01, 0x00, 0x00, 0x00, 0x07, 0x00, 0x00, 0x00,
  0x03, 0x00, 0x00, 0x00, 0x04, 0x00, 0x00, 0x00, 0x05, 0x00, 0x00, 0x00,
  0x06, 0x00, 0x00, 0x00, 0x00, 0x00, 0x0e, 0x00, 0x16, 0x00, 0x00, 0x00,
  0x08, 0x00, 0x0c, 0x00, 0x07, 0x00, 0x10, 0x00, 0x0e, 0x00, 0x00, 0x00,
  0x00, 0x00, 0x00, 0x08, 0x24, 0x00, 0x00, 0x00, 0x18, 0x00, 0x00, 0x00,
  0x0c, 0x00, 0x00, 0x00, 0x00, 0x00, 0x06, 0x00, 0x08, 0x00, 0x07, 0x00,
  0x06, 0x00, 0x00, 0x00, 0x00, 0x00, 0x00, 0x01, 0x01, 0x00, 0x00, 0x00,
  0x04, 0x00, 0x00, 0x00, 0x03, 0x00, 0x00, 0x00, 0x01, 0x00, 0x00, 0x00,
  0x02, 0x00, 0x00, 0x00, 0x03, 0x00, 0x00, 0x00, 0x00, 0x00, 0x0a, 0x00,
  0x10, 0x00, 0x04, 0x00, 0x08, 0x00, 0x0c, 0x00, 0x0a, 0x00, 0x00, 0x00,
  0x02, 0x00, 0x00, 0x00, 0x10, 0x00, 0x00, 0x00, 0x04, 0x00, 0x00, 0x00,
  0x01, 0x00, 0x00, 0x00, 0x01, 0x00, 0x00, 0x00, 0x01, 0x00, 0x00, 0x00,
  0x0b, 0x00, 0x00, 0x00, 0x01, 0x00, 0x00, 0x00, 0x0c, 0x00, 0x00, 0x00,
  0x01, 0x00, 0x00, 0x00, 0x0b, 0x00, 0x00, 0x00, 0x0d, 0x00, 0x00, 0x00,
  0xe4, 0x05, 0x00, 0x00, 0x48, 0x05, 0x00, 0x00, 0xa8, 0x04, 0x00, 0x00,
  0x34, 0x04, 0x00, 0x00, 0xb0, 0x03, 0x00, 0x00, 0x0c, 0x03, 0x00, 0x00,
  0x98, 0x02, 0x00, 0x00, 0x14, 0x02, 0x00, 0x00, 0x88, 0x01, 0x00, 0x00,
  0xe4, 0x00, 0x00, 0x00, 0x70, 0x00, 0x00, 0x00, 0x3c, 0x00, 0x00, 0x00,
  0x04, 0x00, 0x00, 0x00, 0xd8, 0xff, 0xff, 0xff, 0x18, 0x00, 0x00, 0x00,
  0x04, 0x00, 0x00, 0x00, 0x08, 0x00, 0x00, 0x00, 0x49, 0x64, 0x65, 0x6e,
  0x74, 0x69, 0x74, 0x79, 0x00, 0x00, 0x00, 0x00, 0x02, 0x00, 0x00, 0x00,
  0x01, 0x00, 0x00, 0x00, 0x02, 0x00, 0x00, 0x00, 0x0c, 0x00, 0x0c, 0x00,
  0x04, 0x00, 0x00, 0x00, 0x00, 0x00, 0x08, 0x00, 0x0c, 0x00, 0x00, 0x00,
  0x20, 0x00, 0x00, 0x00, 0x04, 0x00, 0x00, 0x00, 0x12, 0x00, 0x00, 0x00,
  0x64, 0x65, 0x6e, 0x73, 0x65, 0x5f, 0x44, 0x65, 0x6e, 0x73, 0x65, 0x31,
  0x5f, 0x69, 0x6e, 0x70, 0x75, 0x74, 0x00, 0x00, 0x02, 0x00, 0x00, 0x00,
  0x01, 0x00, 0x00, 0x00, 0x78, 0x00, 0x00, 0x00, 0xc2, 0xfa, 0xff, 0xff,
  0x00, 0x00, 0x00, 0x02, 0x60, 0x00, 0x00, 0x00, 0x01, 0x00, 0x00, 0x00,
  0x2c, 0x00, 0x00, 0x00, 0x04, 0x00, 0x00, 0x00, 0xb4, 0xfa, 0xff, 0xff,
  0x18, 0x00, 0x00, 0x00, 0x04, 0x00, 0x00, 0x00, 0x01, 0x00, 0x00, 0x00,
  0x00, 0x00, 0x00, 0x00, 0x00, 0x00, 0x00, 0x00, 0x00, 0x00, 0x00, 0x00,
  0x01, 0x00, 0x00, 0x00, 0x79, 0x6c, 0xbf, 0x38, 0x25, 0x00, 0x00, 0x00,
  0x73, 0x65, 0x71, 0x75, 0x65, 0x6e, 0x74, 0x69, 0x61, 0x6c, 0x5f, 0x31,
  0x2f, 0x64, 0x65, 0x6e, 0x73, 0x65, 0x5f, 0x44, 0x65, 0x6e, 0x73, 0x65,
  0x33, 0x2f, 0x4d, 0x61, 0x74, 0x4d, 0x75, 0x6c, 0x5f, 0x62, 0x69, 0x61,
  0x73, 0x00, 0x00, 0x00, 0x01, 0x00, 0x00, 0x00, 0x02, 0x00, 0x00, 0x00,
  0x32, 0xfb, 0xff, 0xff, 0x00, 0x00, 0x00, 0x09, 0x8c, 0x00, 0x00, 0x00,
  0x02, 0x00, 0x00, 0x00, 0x44, 0x00, 0x00, 0x00, 0x04, 0x00, 0x00, 0x00,
  0xbc, 0xfb, 0xff, 0xff, 0x30, 0x00, 0x00, 0x00, 0x24, 0x00, 0x00, 0x00,
  0x18, 0x00, 0x00, 0x00, 0x04, 0x00, 0x00, 0x00, 0x01, 0x00, 0x00, 0x00,
  0x00, 0x00, 0x00, 0x00, 0x00, 0x00, 0x00, 0x00, 0x00, 0x00, 0x00, 0x00,
  0x01, 0x00, 0x00, 0x00, 0xaa, 0x8b, 0xc3, 0x3b, 0x01, 0x00, 0x00, 0x00,
  0x45, 0x36, 0x21, 0x3f, 0x01, 0x00, 0x00, 0x00, 0x93, 0x04, 0x42, 0xbf,
  0x39, 0x00, 0x00, 0x00, 0x73, 0x65, 0x71, 0x75, 0x65, 0x6e, 0x74, 0x69,
  0x61, 0x6c, 0x5f, 0x31, 0x2f, 0x64, 0x65, 0x6e, 0x73, 0x65, 0x5f, 0x44,
  0x65, 0x6e, 0x73, 0x65, 0x33, 0x2f, 0x4d, 0x61, 0x74, 0x4d, 0x75, 0x6c,
  0x2f, 0x52, 0x65, 0x61, 0x64, 0x56, 0x61, 0x72, 0x69, 0x61, 0x62, 0x6c,
  0x65, 0x4f, 0x70, 0x2f, 0x74, 0x72, 0x61, 0x6e, 0x73, 0x70, 0x6f, 0x73,
  0x65, 0x00, 0x00, 0x00, 0x02, 0x00, 0x00, 0x00, 0x02, 0x00, 0x00, 0x00,
  0x0f, 0x00, 0x00, 0x00, 0xd2, 0xfb, 0xff, 0xff, 0x00, 0x00, 0x00, 0x09,
  0x74, 0x00, 0x00, 0x00, 0x0b, 0x00, 0x00, 0x00, 0x44, 0x00, 0x00, 0x00,
  0x04, 0x00, 0x00, 0x00, 0x5c, 0xfc, 0xff, 0xff, 0x30, 0x00, 0x00, 0x00,
  0x24, 0x00, 0x00, 0x00, 0x18, 0x00, 0x00, 0x00, 0x04, 0x00, 0x00, 0x00,
  0x01, 0x00, 0x00, 0x00, 0xf9, 0xff, 0xff, 0xff, 0xff, 0xff, 0xff, 0xff,
  0x00, 0x00, 0x00, 0x00, 0x01, 0x00, 0x00, 0x00, 0x77, 0x07, 0xec, 0x3c,
  0x01, 0x00, 0x00, 0x00, 0xfb, 0x43, 0x76, 0x40, 0x01, 0x00, 0x00, 0x00,
  0xe4, 0xf2, 0x5f, 0xc0, 0x21, 0x00, 0x00, 0x00, 0x73, 0x65, 0x71, 0x75,
  0x65, 0x6e, 0x74, 0x69, 0x61, 0x6c, 0x5f, 0x31, 0x2f, 0x64, 0x65, 0x6e,
  0x73, 0x65, 0x5f, 0x44, 0x65, 0x6e, 0x73, 0x65, 0x33, 0x2f, 0x42, 0x69,
  0x61, 0x73, 0x41, 0x64, 0x64, 0x00, 0x00, 0x00, 0x02, 0x00, 0x00, 0x00,
  0x01, 0x00, 0x00, 0x00, 0x02, 0x00, 0x00, 0x00, 0x5a, 0xfc, 0xff, 0xff,
  0x00, 0x00, 0x00, 0x09, 0x6c, 0x00, 0x00, 0x00, 0x08, 0x00, 0x00, 0x00,
  0x40, 0x00, 0x00, 0x00, 0x04, 0x00, 0x00, 0x00, 0xe4, 0xfc, 0xff, 0xff,
  0x2c, 0x00, 0x00, 0x00, 0x20, 0x00, 0x00, 0x00, 0x14, 0x00, 0x00, 0x00,
  0x04, 0x00, 0x00, 0x00, 0x01, 0x00, 0x00, 0x00, 0x80, 0xff, 0xff, 0xff,
  0xff, 0xff, 0xff, 0xff, 0x01, 0x00, 0x00, 0x00, 0x97, 0x9a, 0x7a, 0x3c,
  0x01, 0x00, 0x00, 0x00, 0xfc, 0x9f, 0x79, 0x40, 0x01, 0x00, 0x00, 0x00,
  0x00, 0x00, 0x00, 0x00, 0x1e, 0x00, 0x00, 0x00, 0x73, 0x65, 0x71, 0x75,
  0x65, 0x6e, 0x74, 0x69, 0x61, 0x6c, 0x5f, 0x31, 0x2f, 0x64, 0x65, 0x6e,
  0x73, 0x65, 0x5f, 0x44, 0x65, 0x6e, 0x73, 0x65, 0x32, 0x2f, 0x52, 0x65,
  0x6c, 0x75, 0x00, 0x00, 0x02, 0x00, 0x00, 0x00, 0x01, 0x00, 0x00, 0x00,
  0x0f, 0x00, 0x00, 0x00, 0xda, 0xfc, 0xff, 0xff, 0x00, 0x00, 0x00, 0x02,
  0x60, 0x00, 0x00, 0x00, 0x03, 0x00, 0x00, 0x00, 0x2c, 0x00, 0x00, 0x00,
  0x04, 0x00, 0x00, 0x00, 0xcc, 0xfc, 0xff, 0xff, 0x18, 0x00, 0x00, 0x00,
  0x04, 0x00, 0x00, 0x00, 0x01, 0x00, 0x00, 0x00, 0x00, 0x00, 0x00, 0x00,
  0x00, 0x00, 0x00, 0x00, 0x00, 0x00, 0x00, 0x00, 0x01, 0x00, 0x00, 0x00,
  0x82, 0x7a, 0x00, 0x38, 0x25, 0x00, 0x00, 0x00, 0x73, 0x65, 0x71, 0x75,
  0x65, 0x6e, 0x74, 0x69, 0x61, 0x6c, 0x5f, 0x31, 0x2f, 0x64, 0x65, 0x6e,
  0x73, 0x65, 0x5f, 0x44, 0x65, 0x6e, 0x73, 0x65, 0x32, 0x2f, 0x4d, 0x61,
  0x74, 0x4d, 0x75, 0x6c, 0x5f, 0x62, 0x69, 0x61, 0x73, 0x00, 0x00, 0x00,
  0x01, 0x00, 0x00, 0x00, 0x0f, 0x00, 0x00, 0x00, 0x4a, 0xfd, 0xff, 0xff,
  0x00, 0x00, 0x00, 0x09, 0x8c, 0x00, 0x00, 0x00, 0x06, 0x00, 0x00, 0x00,
  0x44, 0x00, 0x00, 0x00, 0x04, 0x00, 0x00, 0x00, 0xd4, 0xfd, 0xff, 0xff,
  0x30, 0x00, 0x00, 0x00, 0x24, 0x00, 0x00, 0x00, 0x18, 0x00, 0x00, 0x00,
  0x04, 0x00, 0x00, 0x00, 0x01, 0x00, 0x00, 0x00, 0x00, 0x00, 0x00, 0x00,
  0x00, 0x00, 0x00, 0x00, 0x00, 0x00, 0x00, 0x00, 0x01, 0x00, 0x00, 0x00,
  0xb7, 0xd9, 0x75, 0x3b, 0x01, 0x00, 0x00, 0x00, 0x04, 0xee, 0xf3, 0x3e,
  0x01, 0x00, 0x00, 0x00, 0xa4, 0x30, 0xb1, 0xbe, 0x39, 0x00, 0x00, 0x00,
  0x73, 0x65, 0x71, 0x75, 0x65, 0x6e, 0x74, 0x69, 0x61, 0x6c, 0x5f, 0x31,
  0x2f, 0x64, 0x65, 0x6e, 0x73, 0x65, 0x5f, 0x44, 0x65, 0x6e, 0x73, 0x65,
  0x32, 0x2f, 0x4d, 0x61, 0x74, 0x4d, 0x75, 0x6c, 0x2f, 0x52, 0x65, 0x61,
  0x64, 0x56, 0x61, 0x72, 0x69, 0x61, 0x62, 0x6c, 0x65, 0x4f, 0x70, 0x2f,
  0x74, 0x72, 0x61, 0x6e, 0x73, 0x70, 0x6f, 0x73, 0x65, 0x00, 0x00, 0x00,
  0x02, 0x00, 0x00, 0x00, 0x0f, 0x00, 0x00, 0x00, 0x32, 0x00, 0x00, 0x00,
  0xea, 0xfd, 0xff, 0xff, 0x00, 0x00, 0x00, 0x09, 0x6c, 0x00, 0x00, 0x00,
  0x0a, 0x00, 0x00, 0x00, 0x40, 0x00, 0x00, 0x00, 0x04, 0x00, 0x00, 0x00,
  0x74, 0xfe, 0xff, 0xff, 0x2c, 0x00, 0x00, 0x00, 0x20, 0x00, 0x00, 0x00,
  0x14, 0x00, 0x00, 0x00, 0x04, 0x00, 0x00, 0x00, 0x01, 0x00, 0x00, 0x00,
  0x80, 0xff, 0xff, 0xff, 0xff, 0xff, 0xff, 0xff, 0x01, 0x00, 0x00, 0x00,
  0x57, 0xc8, 0x05, 0x3c, 0x01, 0x00, 0x00, 0x00, 0x8f, 0x42, 0x05, 0x40,
  0x01, 0x00, 0x00, 0x00, 0x00, 0x00, 0x00, 0x00, 0x1e, 0x00, 0x00, 0x00,
  0x73, 0x65, 0x71, 0x75, 0x65, 0x6e, 0x74, 0x69, 0x61, 0x6c, 0x5f, 0x31,
  0x2f, 0x64, 0x65, 0x6e, 0x73, 0x65, 0x5f, 0x44, 0x65, 0x6e, 0x73, 0x65,
  0x31, 0x2f, 0x52, 0x65, 0x6c, 0x75, 0x00, 0x00, 0x02, 0x00, 0x00, 0x00,
  0x01, 0x00, 0x00, 0x00, 0x32, 0x00, 0x00, 0x00, 0x6a, 0xfe, 0xff, 0xff,
  0x00, 0x00, 0x00, 0x02, 0x60, 0x00, 0x00, 0x00, 0x04, 0x00, 0x00, 0x00,
  0x2c, 0x00, 0x00, 0x00, 0x04, 0x00, 0x00, 0x00, 0x5c, 0xfe, 0xff, 0xff,
  0x18, 0x00, 0x00, 0x00, 0x04, 0x00, 0x00, 0x00, 0x01, 0x00, 0x00, 0x00,
  0x00, 0x00, 0x00, 0x00, 0x00, 0x00, 0x00, 0x00, 0x00, 0x00, 0x00, 0x00,
  0x01, 0x00, 0x00, 0x00, 0x8c, 0x87, 0xa7, 0x37, 0x25, 0x00, 0x00, 0x00,
  0x73, 0x65, 0x71, 0x75, 0x65, 0x6e, 0x74, 0x69, 0x61, 0x6c, 0x5f, 0x31,
  0x2f, 0x64, 0x65, 0x6e, 0x73, 0x65, 0x5f, 0x44, 0x65, 0x6e, 0x73, 0x65,
  0x31, 0x2f, 0x4d, 0x61, 0x74, 0x4d, 0x75, 0x6c, 0x5f, 0x62, 0x69, 0x61,
  0x73, 0x00, 0x00, 0x00, 0x01, 0x00, 0x00, 0x00, 0x32, 0x00, 0x00, 0x00,
  0xda, 0xfe, 0xff, 0xff, 0x00, 0x00, 0x00, 0x09, 0x88, 0x00, 0x00, 0x00,
  0x09, 0x00, 0x00, 0x00, 0x40, 0x00, 0x00, 0x00, 0x04, 0x00, 0x00, 0x00,
  0x64, 0xff, 0xff, 0xff, 0x2c, 0x00, 0x00, 0x00, 0x20, 0x00, 0x00, 0x00,
  0x14, 0x00, 0x00, 0x00, 0x04, 0x00, 0x00, 0x00, 0x01, 0x00, 0x00, 0x00,
  0x00, 0x00, 0x00, 0x00, 0x00, 0x00, 0x00, 0x00, 0x01, 0x00, 0x00, 0x00,
  0x3c, 0xe5, 0x26, 0x3b, 0x01, 0x00, 0x00, 0x00, 0x59, 0x74, 0x99, 0x3e,
  0x01, 0x00, 0x00, 0x00, 0x72, 0x97, 0xa5, 0xbe, 0x39, 0x00, 0x00, 0x00,
  0x73, 0x65, 0x71, 0x75, 0x65, 0x6e, 0x74, 0x69, 0x61, 0x6c, 0x5f, 0x31,
  0x2f, 0x64, 0x65, 0x6e, 0x73, 0x65, 0x5f, 0x44, 0x65, 0x6e, 0x73, 0x65,
  0x31, 0x2f, 0x4d, 0x61, 0x74, 0x4d, 0x75, 0x6c, 0x2f, 0x52, 0x65, 0x61,
  0x64, 0x56, 0x61, 0x72, 0x69, 0x61, 0x62, 0x6c, 0x65, 0x4f, 0x70, 0x2f,
  0x74, 0x72, 0x61, 0x6e, 0x73, 0x70, 0x6f, 0x73, 0x65, 0x00, 0x00, 0x00,
  0x02, 0x00, 0x00, 0x00, 0x32, 0x00, 0x00, 0x00, 0x78, 0x00, 0x00, 0x00,
  0x76, 0xff, 0xff, 0xff, 0x00, 0x00, 0x00, 0x09, 0x74, 0x00, 0x00, 0x00,
  0x07, 0x00, 0x00, 0x00, 0x50, 0x00, 0x00, 0x00, 0x10, 0x00, 0x00, 0x00,
  0x0c, 0x00, 0x14, 0x00, 0x04, 0x00, 0x08, 0x00, 0x0c, 0x00, 0x10, 0x00,
  0x0c, 0x00, 0x00, 0x00, 0x30, 0x00, 0x00, 0x00, 0x24, 0x00, 0x00, 0x00,
  0x18, 0x00, 0x00, 0x00, 0x04, 0x00, 0x00, 0x00, 0x01, 0x00, 0x00, 0x00,
  0x00, 0x00, 0x00, 0x00, 0x00, 0x00, 0x00, 0x00, 0x00, 0x00, 0x00, 0x00,
  0x01, 0x00, 0x00, 0x00, 0x7c, 0x7c, 0x00, 0x3c, 0x01, 0x00, 0x00, 0x00,
  0x00, 0xf8, 0x7f, 0x3f, 0x01, 0x00, 0x00, 0x00, 0x00, 0xf8, 0x7f, 0xbf,
  0x17, 0x00, 0x00, 0x00, 0x64, 0x65, 0x6e, 0x73, 0x65, 0x5f, 0x44, 0x65,
  0x6e, 0x73, 0x65, 0x31, 0x5f, 0x69, 0x6e, 0x70, 0x75, 0x74, 0x5f, 0x69,
  0x6e, 0x74, 0x38, 0x00, 0x02, 0x00, 0x00, 0x00, 0x01, 0x00, 0x00, 0x00,
  0x78, 0x00, 0x00, 0x00, 0x00, 0x00, 0x0e, 0x00, 0x18, 0x00, 0x08, 0x00,
  0x07, 0x00, 0x0c, 0x00, 0x10, 0x00, 0x14, 0x00, 0x0e, 0x00, 0x00, 0x00,
  0x00, 0x00, 0x00, 0x09, 0x54, 0x00, 0x00, 0x00, 0x05, 0x00, 0x00, 0x00,
  0x38, 0x00, 0x00, 0x00, 0x10, 0x00, 0x00, 0x00, 0x0c, 0x00, 0x0c, 0x00,
  0x00, 0x00, 0x00, 0x00, 0x04, 0x00, 0x08, 0x00, 0x0c, 0x00, 0x00, 0x00,
  0x18, 0x00, 0x00, 0x00, 0x04, 0x00, 0x00, 0x00, 0x01, 0x00, 0x00, 0x00,
  0x80, 0xff, 0xff, 0xff, 0xff, 0xff, 0xff, 0xff, 0x00, 0x00, 0x00, 0x00,
  0x01, 0x00, 0x00, 0x00, 0x00, 0x00, 0x80, 0x3b, 0x0d, 0x00, 0x00, 0x00,
  0x49, 0x64, 0x65, 0x6e, 0x74, 0x69, 0x74, 0x79, 0x5f, 0x69, 0x6e, 0x74,
  0x38, 0x00, 0x00, 0x00, 0x02, 0x00, 0x00, 0x00, 0x01, 0x00, 0x00, 0x00,
  0x02, 0x00, 0x00, 0x00, 0x04, 0x00, 0x00, 0x00, 0x4c, 0x00, 0x00, 0x00,
  0x30, 0x00, 0x00, 0x00, 0x1c, 0x00, 0x00, 0x00, 0x04, 0x00, 0x00, 0x00,
  0xe6, 0xff, 0xff, 0xff, 0x00, 0x00, 0x00, 0x06, 0x02, 0x00, 0x00, 0x00,
  0x00, 0x00, 0x06, 0x00, 0x06, 0x00, 0x05, 0x00, 0x06, 0x00, 0x00, 0x00,
  0x00, 0x72, 0x0a, 0x00, 0x0e, 0x00, 0x07, 0x00, 0x00, 0x00, 0x08, 0x00,
  0x0a, 0x00, 0x00, 0x00, 0x00, 0x00, 0x00, 0x19, 0x02, 0x00, 0x00, 0x00,
  0x00, 0x00, 0x0a, 0x00, 0x0c, 0x00, 0x07, 0x00, 0x00, 0x00, 0x08, 0x00,
  0x0a, 0x00, 0x00, 0x00, 0x00, 0x00, 0x00, 0x09, 0x04, 0x00, 0x00, 0x00

};